unsigned char model_0320_1822_model_CNN_tflite[] = {
  0x1c, 0x00, 0x00, 0x00, 0x54, 0x46, 0x4c, 0x33, 0x14, 0x00, 0x20, 0x00,
  0x1c, 0x00, 0x18, 0x00, 0x14, 0x00, 0x10, 0x00, 0x0c, 0x00, 0x00, 0x00,
  0x08, 0x00, 0x04, 0x00, 0x14, 0x00, 0x00, 0x00, 0x1c, 0x00, 0x00, 0x00,
  0x7c, 0x00, 0x00, 0x00, 0xd4, 0x00, 0x00, 0x00, 0xac, 0x0e, 0x00, 0x00,
  0xbc, 0x0e, 0x00, 0x00, 0x00, 0x19, 0x00, 0x00, 0x03, 0x00, 0x00, 0x00,
  0x01, 0x00, 0x00, 0x00, 0x04, 0x00, 0x00, 0x00, 0xda, 0xef, 0xff, 0xff,
  0x0c, 0x00, 0x00, 0x00, 0x1c, 0x00, 0x00, 0x00, 0x38, 0x00, 0x00, 0x00,
  0x0f, 0x00, 0x00, 0x00, 0x73, 0x65, 0x72, 0x76, 0x69, 0x6e, 0x67, 0x5f,
  0x64, 0x65, 0x66, 0x61, 0x75, 0x6c, 0x74, 0x00, 0x01, 0x00, 0x00, 0x00,
  0x04, 0x00, 0x00, 0x00, 0xa0, 0xff, 0xff, 0xff, 0x13, 0x00, 0x00, 0x00,
  0x04, 0x00, 0x00, 0x00, 0x05, 0x00, 0x00, 0x00, 0x64, 0x65, 0x6e, 0x73,
  0x65, 0x00, 0x00, 0x00, 0x01, 0x00, 0x00, 0x00, 0x04, 0x00, 0x00, 0x00,
  0xde, 0xef, 0xff, 0xff, 0x04, 0x00, 0x00, 0x00, 0x03, 0x00, 0x00, 0x00,
  0x6d, 0x65, 0x6c, 0x00, 0x02, 0x00, 0x00, 0x00, 0x34, 0x00, 0x00, 0x00,
  0x04, 0x00, 0x00, 0x00, 0xdc, 0xff, 0xff, 0xff, 0x16, 0x00, 0x00, 0x00,
  0x04, 0x00, 0x00, 0x00, 0x13, 0x00, 0x00, 0x00, 0x43, 0x4f, 0x4e, 0x56,
  0x45, 0x52, 0x53, 0x49, 0x4f, 0x4e, 0x5f, 0x4d, 0x45, 0x54, 0x41, 0x44,
  0x41, 0x54, 0x41, 0x00, 0x08, 0x00, 0x0c, 0x00, 0x08, 0x00, 0x04, 0x00,
  0x08, 0x00, 0x00, 0x00, 0x15, 0x00, 0x00, 0x00, 0x04, 0x00, 0x00, 0x00,
  0x13, 0x00, 0x00, 0x00, 0x6d, 0x69, 0x6e, 0x5f, 0x72, 0x75, 0x6e, 0x74,
  0x69, 0x6d, 0x65, 0x5f, 0x76, 0x65, 0x72, 0x73, 0x69, 0x6f, 0x6e, 0x00,
  0x17, 0x00, 0x00, 0x00, 0xd4, 0x0d, 0x00, 0x00, 0xcc, 0x0d, 0x00, 0x00,
  0xb0, 0x0d, 0x00, 0x00, 0x34, 0x0d, 0x00, 0x00, 0x20, 0x0d, 0x00, 0x00,
  0x0c, 0x0d, 0x00, 0x00, 0xf8, 0x0c, 0x00, 0x00, 0xf0, 0x0c, 0x00, 0x00,
  0xdc, 0x0c, 0x00, 0x00, 0xc8, 0x0c, 0x00, 0x00, 0xb0, 0x0c, 0x00, 0x00,
  0xd0, 0x00, 0x00, 0x00, 0xc8, 0x00, 0x00, 0x00, 0xc0, 0x00, 0x00, 0x00,
  0xb8, 0x00, 0x00, 0x00, 0xb0, 0x00, 0x00, 0x00, 0xa8, 0x00, 0x00, 0x00,
  0xa0, 0x00, 0x00, 0x00, 0x98, 0x00, 0x00, 0x00, 0x90, 0x00, 0x00, 0x00,
  0x88, 0x00, 0x00, 0x00, 0x68, 0x00, 0x00, 0x00, 0x04, 0x00, 0x00, 0x00,
  0xaa, 0xf0, 0xff, 0xff, 0x04, 0x00, 0x00, 0x00, 0x54, 0x00, 0x00, 0x00,
  0x0c, 0x00, 0x00, 0x00, 0x08, 0x00, 0x0e, 0x00, 0x08, 0x00, 0x04, 0x00,
  0x08, 0x00, 0x00, 0x00, 0x10, 0x00, 0x00, 0x00, 0x24, 0x00, 0x00, 0x00,
  0x00, 0x00, 0x06, 0x00, 0x08, 0x00, 0x04, 0x00, 0x06, 0x00, 0x00, 0x00,
  0x04, 0x00, 0x00, 0x00, 0x00, 0x00, 0x00, 0x00, 0x00, 0x00, 0x0a, 0x00,
  0x10, 0x00, 0x0c, 0x00, 0x08, 0x00, 0x04, 0x00, 0x0a, 0x00, 0x00, 0x00,
  0x02, 0x00, 0x00, 0x00, 0x02, 0x00, 0x00, 0x00, 0x04, 0x00, 0x00, 0x00,
  0x06, 0x00, 0x00, 0x00, 0x32, 0x2e, 0x31, 0x33, 0x2e, 0x31, 0x00, 0x00,
  0x0a, 0xf1, 0xff, 0xff, 0x04, 0x00, 0x00, 0x00, 0x10, 0x00, 0x00, 0x00,
  0x31, 0x2e, 0x31, 0x34, 0x2e, 0x30, 0x00, 0x00, 0x00, 0x00, 0x00, 0x00,
  0x00, 0x00, 0x00, 0x00, 0xd8, 0xe8, 0xff, 0xff, 0xdc, 0xe8, 0xff, 0xff,
  0xe0, 0xe8, 0xff, 0xff, 0xe4, 0xe8, 0xff, 0xff, 0xe8, 0xe8, 0xff, 0xff,
  0xec, 0xe8, 0xff, 0xff, 0xf0, 0xe8, 0xff, 0xff, 0xf4, 0xe8, 0xff, 0xff,
  0xf8, 0xe8, 0xff, 0xff, 0x4a, 0xf1, 0xff, 0xff, 0x04, 0x00, 0x00, 0x00,
  0xd0, 0x0b, 0x00, 0x00, 0x78, 0xf0, 0x70, 0x3e, 0x4f, 0x7c, 0xd1, 0x3c,
  0xf9, 0x05, 0x32, 0xbe, 0x97, 0x94, 0x8a, 0x3e, 0x61, 0x6b, 0x13, 0x3e,
  0xfd, 0x91, 0x7b, 0xbe, 0x90, 0x29, 0x23, 0x3e, 0xf5, 0x73, 0x90, 0x3d,
  0xc0, 0xfd, 0x5b, 0x3e, 0x37, 0x67, 0x6b, 0x3b, 0xbb, 0x99, 0x97, 0xbe,
  0x9a, 0x7b, 0x2c, 0xbe, 0x0a, 0xf9, 0x4f, 0x3d, 0xd8, 0x18, 0x47, 0xbe,
  0x24, 0x33, 0xcb, 0xbe, 0x6d, 0xc8, 0xbb, 0x3e, 0x28, 0x45, 0x5c, 0x3d,
  0x4f, 0x63, 0xe7, 0xbe, 0x6e, 0xf7, 0x89, 0x3e, 0x60, 0xa1, 0xd4, 0xbe,
  0xb6, 0x44, 0xdd, 0xbe, 0x69, 0x84, 0xa2, 0x3e, 0x59, 0xda, 0x43, 0xbe,
  0x55, 0xfe, 0x3b, 0x3d, 0xcf, 0xac, 0x2c, 0x3e, 0xf7, 0xf1, 0x4b, 0xbe,
  0x0d, 0x9d, 0x5e, 0x3d, 0xd9, 0xe9, 0x4a, 0x3e, 0x3e, 0xd4, 0xba, 0xbd,
  0x1b, 0xf7, 0xea, 0xbe, 0x72, 0xff, 0x9b, 0x3e, 0x95, 0xa9, 0xeb, 0xbd,
  0xc8, 0xe7, 0x4a, 0x3c, 0xd2, 0x0a, 0xe9, 0x3d, 0xf1, 0x63, 0xef, 0x3c,
  0xa0, 0xea, 0x31, 0xbf, 0xd2, 0x76, 0x04, 0xbc, 0xe2, 0xa2, 0x41, 0x3d,
  0x13, 0x8f, 0xcd, 0xbe, 0x7e, 0x04, 0x8b, 0x3d, 0x52, 0x44, 0x5f, 0x3e,
  0xb5, 0x26, 0x5d, 0xbf, 0x3e, 0x06, 0x66, 0x3d, 0x2c, 0x02, 0x22, 0xbd,
  0x5e, 0xcf, 0xd6, 0xbe, 0x2b, 0x34, 0x51, 0xbc, 0xf8, 0xa0, 0x2d, 0xbe,
  0xe9, 0x82, 0x0b, 0xbf, 0x72, 0xe4, 0x98, 0x3d, 0xc3, 0xec, 0x3f, 0xbe,
  0xd2, 0xbd, 0x34, 0xbf, 0x29, 0xc3, 0xb3, 0x3e, 0x80, 0x14, 0x29, 0xbd,
  0x53, 0x1e, 0x58, 0xbf, 0x9e, 0x30, 0xc7, 0xbe, 0x7b, 0x46, 0x04, 0xbe,
  0x38, 0x0f, 0x3f, 0xbf, 0x09, 0xe6, 0x2b, 0xbe, 0xc2, 0x9f, 0x63, 0xbf,
  0xcf, 0x41, 0x9b, 0xbe, 0xe3, 0xe0, 0xa4, 0xbd, 0x15, 0xff, 0x55, 0xbe,
  0x0f, 0x8f, 0xdc, 0xbe, 0x27, 0x89, 0xc2, 0x3c, 0x78, 0xc9, 0xaf, 0x3e,
  0xd0, 0xf8, 0x74, 0xbf, 0x07, 0xba, 0x90, 0x3d, 0x7f, 0xd4, 0xed, 0x3e,
  0xd5, 0x55, 0x0f, 0xbf, 0xcb, 0x4a, 0x5a, 0x3e, 0xa4, 0x4e, 0x01, 0x3f,
  0xb8, 0x59, 0x43, 0xbe, 0xe9, 0xb3, 0x52, 0x3e, 0xdd, 0x51, 0x55, 0xbc,
  0x7c, 0x39, 0x40, 0xbf, 0x24, 0x1a, 0x72, 0x3e, 0x36, 0x34, 0x86, 0xbe,
  0x45, 0xcc, 0x8c, 0xbe, 0xa0, 0x4f, 0x44, 0x3d, 0x89, 0xa5, 0x1a, 0xbf,
  0x41, 0x24, 0x5e, 0xbf, 0x95, 0xf1, 0x2c, 0xbd, 0x63, 0x5f, 0xa8, 0xbe,
  0x03, 0x08, 0x46, 0xbf, 0xd1, 0x9b, 0x84, 0x3c, 0x2b, 0x88, 0x23, 0xbe,
  0xf4, 0x62, 0x57, 0xbf, 0x78, 0xb2, 0xf9, 0xbd, 0xa2, 0x57, 0x63, 0xbe,
  0xfb, 0xd9, 0x81, 0xbd, 0xea, 0xad, 0x44, 0xbe, 0xc1, 0x89, 0xd8, 0x3e,
  0x20, 0x96, 0xee, 0xbe, 0x6d, 0x76, 0x6d, 0xbe, 0xde, 0x75, 0x5b, 0xbe,
  0xb0, 0xc8, 0x19, 0xbf, 0xe0, 0xfc, 0x13, 0xbe, 0xda, 0x7a, 0x74, 0x3e,
  0xcd, 0x91, 0xe5, 0xbe, 0x76, 0x8a, 0x93, 0xbe, 0xbf, 0x17, 0x74, 0xbe,
  0xfb, 0xe4, 0xff, 0xbe, 0x5e, 0x78, 0x84, 0xbd, 0x99, 0x1f, 0x49, 0x3b,
  0x09, 0x8a, 0x10, 0xbf, 0x68, 0x42, 0x20, 0x3c, 0x6d, 0x4d, 0xba, 0xbe,
  0xad, 0x2c, 0xb5, 0xbe, 0x47, 0x0e, 0x38, 0xbf, 0x23, 0xa8, 0xdc, 0xbe,
  0x63, 0xb1, 0x00, 0xbf, 0x0f, 0xb6, 0x47, 0xbe, 0xdd, 0x06, 0x54, 0x3f,
  0x98, 0x2a, 0x90, 0xbe, 0x52, 0x06, 0x0c, 0xbd, 0x98, 0xfb, 0x6e, 0x3e,
  0xb6, 0x43, 0x9f, 0xbe, 0xec, 0xb0, 0x1a, 0x3e, 0x31, 0xf3, 0xc1, 0x3e,
  0x45, 0x91, 0x88, 0x3e, 0xa4, 0x7f, 0xbd, 0xbc, 0xbf, 0xa9, 0xd9, 0x3e,
  0xe5, 0x12, 0xac, 0xbe, 0x88, 0x87, 0x72, 0x3e, 0xdb, 0x41, 0x07, 0xbd,
  0x37, 0xf9, 0x2e, 0xbf, 0xda, 0xd2, 0x8f, 0x3e, 0xde, 0x11, 0x8f, 0xbe,
  0xe9, 0x19, 0x4d, 0xbe, 0xb9, 0x8b, 0x80, 0x3e, 0x7e, 0x25, 0xfc, 0x3e,
  0xf6, 0x0a, 0x26, 0x3c, 0xbb, 0x12, 0x58, 0x3c, 0xf9, 0xbf, 0x51, 0x3e,
  0x31, 0xe5, 0xa4, 0xbe, 0x3e, 0x9d, 0x64, 0x3e, 0x2f, 0x5f, 0xcb, 0x3e,
  0x3b, 0x8e, 0xc3, 0xbe, 0xb7, 0xff, 0xa8, 0x3d, 0xe4, 0xc2, 0xe1, 0x3d,
  0xd7, 0x79, 0x42, 0xbe, 0x54, 0x0a, 0x01, 0xbd, 0x91, 0x15, 0x1d, 0x3f,
  0x79, 0x2b, 0xfe, 0xbe, 0x1a, 0xb4, 0x0d, 0xbe, 0x21, 0xc4, 0xf7, 0xbe,
  0x01, 0xa1, 0x55, 0x3c, 0x25, 0x37, 0x3c, 0xbe, 0xcb, 0x3b, 0x0f, 0x3f,
  0x6c, 0x5e, 0x49, 0xbf, 0xb0, 0xb1, 0x1b, 0xbe, 0x40, 0xd0, 0x27, 0xbd,
  0x3b, 0xf8, 0x29, 0xbf, 0x86, 0x90, 0x65, 0xbd, 0x59, 0xcc, 0x2e, 0xbf,
  0xd0, 0x0e, 0x0f, 0xbf, 0xd6, 0x18, 0xfc, 0xbd, 0xaa, 0x60, 0x20, 0x3e,
  0x73, 0xde, 0x34, 0xbe, 0xe0, 0xad, 0x32, 0x3d, 0x80, 0x83, 0x10, 0xbe,
  0x44, 0xab, 0xd2, 0x39, 0xfa, 0x78, 0x58, 0xbc, 0x63, 0x55, 0x12, 0xbf,
  0xe3, 0xa0, 0xef, 0xbd, 0xf8, 0x32, 0x1e, 0xbe, 0xdc, 0x08, 0x86, 0x3e,
  0xd2, 0x96, 0x28, 0x3e, 0x2d, 0x57, 0xcd, 0xbb, 0x6f, 0x0f, 0xaf, 0x3e,
  0x9a, 0xf5, 0x02, 0xbf, 0x6a, 0xd3, 0x36, 0x3c, 0x65, 0x2a, 0x46, 0x3c,
  0xa8, 0xce, 0x15, 0xbd, 0x45, 0x2a, 0x46, 0xbe, 0x8c, 0x22, 0xb7, 0x3e,
  0xbe, 0xa5, 0xd7, 0xbe, 0x61, 0x21, 0x6e, 0xbd, 0x21, 0xc8, 0x1d, 0x3f,
  0xf4, 0x9f, 0x29, 0xbf, 0x72, 0x9e, 0xed, 0x3c, 0xa8, 0x01, 0x9c, 0x3e,
  0xac, 0x1e, 0x85, 0xbe, 0xcc, 0xf2, 0x8d, 0x3d, 0xc0, 0xbb, 0xd2, 0x3d,
  0x88, 0x75, 0x59, 0x3f, 0x0b, 0xb0, 0x9f, 0xbc, 0x0b, 0x58, 0x69, 0x3c,
  0x87, 0x9b, 0x76, 0xbe, 0x71, 0x80, 0xe9, 0xbd, 0xae, 0x1d, 0x53, 0x3d,
  0xd7, 0xa4, 0x72, 0xbe, 0x4a, 0x59, 0xc0, 0xbd, 0xf1, 0xa6, 0x95, 0xbd,
  0x7e, 0xc8, 0xdb, 0x3e, 0x11, 0x91, 0xf0, 0xbd, 0x53, 0xe6, 0x68, 0x3e,
  0xf1, 0x24, 0x9e, 0x3e, 0xe5, 0x3e, 0xb7, 0x3c, 0xa4, 0xd3, 0xf6, 0x3d,
  0x7d, 0x15, 0x6b, 0xbd, 0x56, 0xd9, 0x13, 0xbe, 0x70, 0x21, 0xee, 0x3e,
  0xa7, 0xf9, 0x18, 0xbf, 0x29, 0x99, 0x57, 0xbd, 0x70, 0x25, 0xc6, 0x3d,
  0xf8, 0x36, 0x95, 0x3d, 0xc7, 0xd0, 0xbd, 0xbd, 0x71, 0xfb, 0x4a, 0x3e,
  0xa5, 0x78, 0x28, 0xbf, 0x7c, 0x7f, 0x41, 0x3d, 0x7e, 0xad, 0x23, 0xbe,
  0x25, 0x08, 0x8c, 0x3e, 0x88, 0xf1, 0x92, 0x3b, 0x5f, 0xaf, 0xbb, 0xbd,
  0x5b, 0x18, 0x2b, 0xbe, 0xbe, 0xc9, 0x71, 0xbd, 0x99, 0x58, 0x94, 0x3e,
  0x68, 0x86, 0x20, 0xbc, 0x2b, 0x2b, 0x0b, 0xbe, 0x2b, 0xd2, 0x8b, 0x3e,
  0xba, 0x80, 0xe8, 0x3e, 0xbb, 0xe7, 0x69, 0x3d, 0xb4, 0x9f, 0x84, 0x3c,
  0xdd, 0x2e, 0x90, 0xbc, 0x96, 0xe2, 0x97, 0x3d, 0xfa, 0x78, 0xd6, 0x3d,
  0x4d, 0x72, 0x29, 0x3f, 0x4e, 0x85, 0xd6, 0xbd, 0x02, 0xb6, 0x68, 0x3e,
  0x83, 0xf4, 0xec, 0x3e, 0x6a, 0x28, 0xad, 0xbd, 0x50, 0xc4, 0x43, 0x3e,
  0xfd, 0x38, 0xf1, 0x3c, 0xe6, 0xb9, 0xdd, 0xbc, 0x5d, 0x94, 0x6d, 0x3d,
  0x32, 0x14, 0x36, 0x3f, 0x23, 0x58, 0xb2, 0x3c, 0x74, 0xa3, 0x32, 0xbd,
  0x24, 0x8f, 0x14, 0x3e, 0x0f, 0xfd, 0x9c, 0x3c, 0x20, 0xc7, 0x46, 0xbe,
  0xa8, 0x16, 0xf6, 0x3e, 0x35, 0x3f, 0xbb, 0xbb, 0xed, 0xda, 0xa3, 0x3e,
  0xcd, 0x40, 0x0e, 0xbe, 0xc1, 0x74, 0x26, 0x3e, 0x9c, 0x90, 0xcb, 0x3e,
  0x97, 0x72, 0xf3, 0x3e, 0x1b, 0xfc, 0x80, 0xbe, 0x86, 0xc3, 0x9c, 0x3d,
  0x81, 0xb1, 0x44, 0x3e, 0xfa, 0xf3, 0x8b, 0x3d, 0xbe, 0xd0, 0xa6, 0x3e,
  0xd1, 0x4f, 0x22, 0xbf, 0x4d, 0x0f, 0x8a, 0xbc, 0xed, 0x97, 0xa1, 0x3e,
  0xf0, 0x16, 0xa8, 0xbd, 0xda, 0x88, 0x22, 0xbe, 0xf0, 0xe1, 0x42, 0x3d,
  0x58, 0xd3, 0xb2, 0x3e, 0x92, 0x32, 0xaf, 0x3c, 0x2f, 0x93, 0x91, 0xbd,
  0xae, 0x5e, 0xcb, 0x3d, 0xec, 0xb8, 0x4e, 0xbd, 0x4c, 0x4c, 0x9a, 0x3c,
  0xe1, 0xb3, 0xcf, 0x3e, 0xdb, 0x47, 0xa1, 0x3c, 0x90, 0x42, 0x14, 0xbd,
  0x91, 0x9d, 0x8d, 0xbe, 0x1c, 0x1e, 0xce, 0x3d, 0xae, 0xef, 0x03, 0x3f,
  0x5f, 0xdd, 0xc9, 0x3e, 0xc1, 0x2b, 0x12, 0x3e, 0x79, 0x72, 0x95, 0xbe,
  0xac, 0x63, 0xd7, 0xbe, 0xf5, 0x87, 0x1a, 0x3e, 0x1c, 0x6d, 0x4f, 0xbd,
  0xf0, 0x29, 0x15, 0x3f, 0x9d, 0xb3, 0x2a, 0xbd, 0x36, 0x15, 0x8b, 0x3e,
  0x57, 0x76, 0x89, 0xbf, 0x0b, 0xc7, 0x7f, 0x3d, 0x7f, 0x9e, 0x02, 0x3e,
  0x9b, 0x66, 0xd1, 0xbe, 0xeb, 0x31, 0xd8, 0x3c, 0x81, 0x83, 0xcf, 0x3e,
  0x30, 0x2b, 0xe7, 0x3d, 0x44, 0x6a, 0xba, 0x3d, 0xf5, 0xa4, 0x5a, 0xbe,
  0x36, 0xbf, 0x0d, 0xbf, 0x44, 0x89, 0xad, 0x3d, 0x61, 0x09, 0x8c, 0x3e,
  0x2d, 0x2f, 0xff, 0x3e, 0x46, 0xbe, 0x75, 0x3e, 0xd8, 0xf7, 0xe6, 0xba,
  0x4f, 0xe1, 0x9f, 0x3e, 0x49, 0x32, 0xeb, 0x3c, 0xea, 0x7d, 0xc3, 0xbc,
  0xac, 0xd7, 0xcc, 0xbe, 0x63, 0x4f, 0x37, 0xbe, 0x81, 0x7d, 0xc4, 0x3e,
  0xab, 0x25, 0x06, 0x3f, 0xc4, 0x4e, 0x99, 0xbe, 0xf5, 0x28, 0x3e, 0x3d,
  0x7f, 0x8a, 0x6b, 0xbe, 0xd0, 0xc8, 0x27, 0xbe, 0x52, 0x7d, 0xdd, 0x3d,
  0xe3, 0x25, 0x0d, 0xbe, 0x8e, 0x87, 0x49, 0xbe, 0x24, 0x7d, 0x2c, 0x3e,
  0x28, 0xac, 0x5e, 0xbd, 0x53, 0x4b, 0x22, 0xbd, 0x89, 0x2a, 0xc7, 0x3e,
  0x42, 0xc9, 0xf4, 0xbe, 0x0c, 0x86, 0x96, 0x3d, 0xc1, 0x0c, 0xf3, 0x3e,
  0xde, 0xca, 0x99, 0xbe, 0x95, 0xdf, 0xdd, 0xbd, 0x76, 0x1d, 0x8a, 0xbe,
  0x39, 0x72, 0x23, 0x3d, 0x31, 0x04, 0xa0, 0xbc, 0xde, 0x86, 0x07, 0xbd,
  0x09, 0x97, 0xef, 0xbe, 0x9c, 0xc6, 0x4e, 0xbe, 0x94, 0xee, 0x91, 0xbe,
  0xaa, 0x0f, 0x0e, 0xbf, 0x26, 0xe4, 0x8c, 0x3d, 0xae, 0xc3, 0x51, 0x3d,
  0x0f, 0x35, 0xfa, 0x3e, 0x94, 0x94, 0xe1, 0xbd, 0xf6, 0x99, 0xff, 0xbc,
  0x11, 0x3b, 0x1a, 0xbe, 0x71, 0x33, 0x08, 0xbb, 0xfd, 0xcb, 0xb2, 0xbc,
  0xc1, 0x7a, 0xac, 0xbe, 0x2a, 0x61, 0x1f, 0x3e, 0x59, 0xab, 0x8d, 0xbc,
  0xc5, 0x4a, 0xd7, 0x3e, 0xb5, 0xa2, 0x76, 0x3c, 0x4f, 0x6c, 0x39, 0x3e,
  0x5b, 0x36, 0xb2, 0xbd, 0x91, 0x3c, 0x73, 0x3e, 0x75, 0xa6, 0x10, 0x3e,
  0x8d, 0xef, 0x1c, 0x3f, 0x62, 0xff, 0x15, 0x3d, 0x14, 0x66, 0x04, 0xbe,
  0x65, 0x9f, 0xa1, 0x3e, 0x32, 0xcb, 0xbc, 0x3d, 0x30, 0x38, 0x41, 0x3e,
  0x90, 0xb1, 0xa6, 0x3e, 0x5c, 0xd1, 0x23, 0xbd, 0x48, 0x97, 0x93, 0x3c,
  0x46, 0xc0, 0x54, 0xbd, 0xde, 0xec, 0x4c, 0xbc, 0x6c, 0xa7, 0x24, 0x3e,
  0xfc, 0xed, 0xfc, 0xbe, 0x01, 0x93, 0x4d, 0xbd, 0x68, 0x73, 0xdc, 0x3e,
  0xd3, 0xd8, 0xf4, 0x3d, 0x6a, 0x54, 0x82, 0xbd, 0xa6, 0xa3, 0xcc, 0xbd,
  0x80, 0x39, 0x87, 0x3e, 0x5e, 0x69, 0x7a, 0xbd, 0xac, 0xff, 0x50, 0x3d,
  0x64, 0xad, 0x2a, 0x3e, 0x97, 0x68, 0xf0, 0xbd, 0xda, 0x13, 0x40, 0x3e,
  0x1f, 0xd8, 0xde, 0x3c, 0x1b, 0x30, 0xe8, 0xbd, 0xf9, 0xdf, 0x53, 0xbd,
  0x79, 0x5b, 0x3e, 0x3f, 0xc1, 0x42, 0xae, 0x3c, 0xd7, 0x48, 0x0b, 0x3e,
  0xf5, 0x8b, 0x36, 0xbe, 0x6d, 0x16, 0x74, 0x3d, 0xf0, 0x0d, 0xc1, 0xbd,
  0x7d, 0xb3, 0xef, 0xbe, 0x29, 0x81, 0x3e, 0x3e, 0x2a, 0xc2, 0xc9, 0x3e,
  0x3e, 0xda, 0x3c, 0xbf, 0x81, 0xd0, 0x40, 0xbd, 0x81, 0xd1, 0xae, 0x3e,
  0xbc, 0x4e, 0xdc, 0xbe, 0x9f, 0x77, 0x3b, 0xbd, 0x2b, 0x11, 0x03, 0xbc,
  0x4f, 0x52, 0xe4, 0xbe, 0x61, 0x3e, 0x3a, 0x3e, 0x4d, 0x69, 0x37, 0x3e,
  0x90, 0x76, 0x33, 0xbf, 0x72, 0x04, 0x13, 0x3e, 0x93, 0xcf, 0x86, 0x3e,
  0x35, 0x84, 0xa4, 0x3f, 0xe6, 0xca, 0xf6, 0xbc, 0x54, 0x47, 0xc6, 0x3e,
  0xc6, 0x7f, 0x2c, 0xbf, 0x43, 0x23, 0x44, 0x3c, 0xb4, 0x1b, 0xf4, 0x3d,
  0xee, 0x99, 0x24, 0xbe, 0xdf, 0x45, 0x66, 0xbd, 0xce, 0x1b, 0x0d, 0x3e,
  0x8e, 0x9e, 0x95, 0xbe, 0xf3, 0xe1, 0x2e, 0xbe, 0xdf, 0xe1, 0xd6, 0xbe,
  0xd9, 0xe3, 0xb2, 0x3e, 0x23, 0xcd, 0xb6, 0xbe, 0xb3, 0x87, 0x06, 0x3c,
  0xbf, 0x2a, 0xb1, 0xbe, 0xd1, 0x9c, 0xc8, 0xbd, 0xc7, 0x8b, 0x34, 0x3e,
  0x1b, 0x99, 0x5f, 0x3d, 0xfa, 0x41, 0xca, 0xbd, 0x6b, 0xc2, 0x86, 0x3e,
  0x12, 0xe9, 0x46, 0xbd, 0x10, 0x7f, 0xce, 0x3d, 0x1a, 0x94, 0xab, 0x3e,
  0xd8, 0x76, 0xe5, 0xbd, 0x26, 0x27, 0xea, 0xbb, 0x87, 0x73, 0x1a, 0x3e,
  0xed, 0x2e, 0x10, 0xbd, 0xef, 0x49, 0x0d, 0xbc, 0xda, 0xd4, 0xc2, 0xbd,
  0x32, 0x98, 0x4c, 0xbe, 0xce, 0x71, 0x1b, 0xbc, 0x1c, 0x04, 0xe7, 0x3d,
  0xa9, 0x4f, 0x4f, 0xbf, 0xc7, 0x10, 0x6a, 0xbd, 0x44, 0x9d, 0x6e, 0xbd,
  0x46, 0xa9, 0x62, 0xba, 0x1f, 0x0b, 0x01, 0x3e, 0x1e, 0x18, 0x40, 0x3e,
  0xc6, 0xa8, 0xea, 0xbd, 0x57, 0x62, 0x5a, 0xbe, 0x95, 0x76, 0x5e, 0xbe,
  0x53, 0x79, 0xc0, 0x3e, 0xfb, 0x24, 0xaf, 0xbe, 0x0a, 0x2a, 0xe0, 0x3e,
  0x8f, 0x4e, 0x8b, 0x3e, 0x13, 0x4a, 0x30, 0xbe, 0xfb, 0xd7, 0xb2, 0x3d,
  0x25, 0x12, 0x53, 0x3c, 0xf0, 0x2a, 0xf4, 0x3d, 0x34, 0x45, 0xbd, 0x3e,
  0xd0, 0x41, 0xca, 0xbe, 0xcc, 0xe7, 0x97, 0x3d, 0xc0, 0x4c, 0x5f, 0x3e,
  0x84, 0x0b, 0x8c, 0x3e, 0xba, 0x12, 0x0a, 0xbe, 0x4e, 0xe4, 0x1b, 0x3e,
  0x4b, 0x55, 0x86, 0x3d, 0x6b, 0xc2, 0x42, 0x3e, 0xc0, 0xe4, 0xd1, 0x3d,
  0xb8, 0x70, 0xae, 0xbe, 0x56, 0xee, 0xed, 0x3e, 0x8f, 0x30, 0xae, 0x3e,
  0x80, 0x79, 0xb3, 0xbd, 0x95, 0x7a, 0x3b, 0x3e, 0xd6, 0xe8, 0x22, 0x3b,
  0x63, 0xcb, 0x25, 0x3f, 0x98, 0x56, 0x52, 0xbe, 0x61, 0x4f, 0xd2, 0xbe,
  0x11, 0x24, 0xb5, 0x3c, 0xc0, 0x11, 0x1d, 0xbe, 0xde, 0x2c, 0xdc, 0x3e,
  0x32, 0x7b, 0x1b, 0xbf, 0xd7, 0xf5, 0xab, 0xbc, 0x3a, 0x3c, 0x8e, 0x3e,
  0x62, 0x92, 0xb5, 0xbe, 0xc1, 0x65, 0xa0, 0x3c, 0x47, 0xde, 0x1e, 0xbe,
  0x04, 0x0c, 0xde, 0xbe, 0x1f, 0x3a, 0xc5, 0x3c, 0xf6, 0x14, 0x98, 0x3e,
  0x7a, 0xe0, 0xbb, 0xbe, 0xb3, 0x53, 0xf4, 0x3d, 0x2f, 0x56, 0xcb, 0x3e,
  0x81, 0x09, 0x0c, 0xbd, 0x43, 0xe0, 0xac, 0x3d, 0x55, 0x78, 0x7d, 0x3e,
  0x74, 0x70, 0xaa, 0xbe, 0xaa, 0x95, 0x8f, 0x3d, 0xc5, 0x23, 0xe3, 0xbd,
  0xec, 0xa1, 0x23, 0xbe, 0x71, 0x38, 0x3a, 0xbe, 0x5a, 0xa5, 0x8d, 0xbc,
  0x90, 0xad, 0x18, 0xbf, 0x74, 0xb5, 0x33, 0x3e, 0xd6, 0x09, 0x82, 0x3e,
  0x05, 0xbd, 0x9d, 0xbd, 0x88, 0x12, 0x76, 0x3d, 0xa7, 0x7b, 0xd4, 0xbb,
  0x57, 0x85, 0xa8, 0x3e, 0x0e, 0x86, 0x05, 0xbe, 0xc6, 0x18, 0xab, 0xbd,
  0x3d, 0x18, 0x09, 0xbd, 0xf5, 0x5c, 0x73, 0xbc, 0xdb, 0xc0, 0xdd, 0x3d,
  0xd6, 0x42, 0xa0, 0xbb, 0x7e, 0x0a, 0xc3, 0x3d, 0x0a, 0xcc, 0xb3, 0x3e,
  0x5f, 0x4c, 0x0c, 0x3f, 0xcc, 0x4a, 0x95, 0xbc, 0xc2, 0xc3, 0xa3, 0x3e,
  0xe9, 0xe1, 0x4b, 0x3e, 0x07, 0x24, 0x84, 0xbd, 0xda, 0xed, 0xd7, 0xbe,
  0x4e, 0xf4, 0x82, 0xbd, 0xe9, 0xe2, 0x96, 0x3e, 0x91, 0x46, 0xb7, 0x3e,
  0xa9, 0x24, 0xb0, 0x3d, 0x25, 0xf7, 0x95, 0x3d, 0xe6, 0xa0, 0xbc, 0xbd,
  0xf5, 0x4a, 0x3d, 0xbd, 0xc4, 0xf9, 0xab, 0xbd, 0xf5, 0x4e, 0x26, 0x3d,
  0xab, 0x3b, 0x02, 0xbd, 0x50, 0xc7, 0xb6, 0xbd, 0x17, 0x2d, 0x82, 0xbd,
  0x6d, 0xbb, 0x24, 0xbe, 0xfa, 0xcb, 0x91, 0xbd, 0x78, 0x55, 0xa6, 0x3e,
  0xbb, 0xde, 0x1c, 0x3e, 0xb9, 0xad, 0xda, 0xbd, 0x12, 0x8c, 0x76, 0x3e,
  0x1f, 0x5b, 0x0f, 0xbf, 0xd7, 0x25, 0xa1, 0x3d, 0x1f, 0x1a, 0x7b, 0x3d,
  0x4e, 0x92, 0x3e, 0xbe, 0x53, 0x3d, 0x0c, 0xbc, 0x4a, 0x20, 0x18, 0xbe,
  0xbc, 0x0e, 0x46, 0xbf, 0xb0, 0x81, 0xc3, 0x3d, 0x1a, 0xd9, 0x54, 0x3d,
  0xc6, 0x41, 0xda, 0xbc, 0x21, 0x67, 0xd4, 0xbd, 0xc9, 0x2f, 0xf5, 0xbd,
  0x59, 0x27, 0x4a, 0xbf, 0xba, 0xd1, 0x0e, 0xbe, 0x16, 0x7f, 0x2b, 0xbc,
  0x28, 0x65, 0x0a, 0x3e, 0xc9, 0x55, 0x36, 0xbd, 0x30, 0x3b, 0x28, 0xbe,
  0x20, 0x1d, 0x2f, 0x3e, 0x36, 0xec, 0xe7, 0xbb, 0x57, 0xe1, 0x28, 0xbe,
  0xf5, 0xf5, 0xa5, 0xbe, 0x16, 0x49, 0xb3, 0x3d, 0xbd, 0xdc, 0x48, 0xbd,
  0x0d, 0xe6, 0x7b, 0x3f, 0x19, 0x12, 0x9d, 0xbd, 0x1d, 0xf5, 0x1e, 0xbe,
  0x7a, 0x9e, 0xc8, 0xbe, 0x10, 0x08, 0x06, 0x3e, 0x04, 0x75, 0x51, 0x3e,
  0xb5, 0xe0, 0x42, 0xbe, 0x74, 0x3d, 0x98, 0x3d, 0x53, 0x3c, 0xff, 0xbd,
  0xc8, 0x0a, 0x34, 0x3e, 0x13, 0xd4, 0x8a, 0x3d, 0x41, 0x5a, 0xc2, 0x3c,
  0xdc, 0x1f, 0x63, 0x3e, 0x4d, 0xf4, 0x01, 0x3e, 0x18, 0x1a, 0x66, 0x3d,
  0x73, 0x50, 0x18, 0x3f, 0xf0, 0xdf, 0x2b, 0xbe, 0x81, 0x16, 0xe0, 0xbe,
  0x51, 0xb0, 0xf2, 0x3c, 0xce, 0xb8, 0xbb, 0xbd, 0x35, 0x3e, 0xfb, 0x3d,
  0x85, 0x01, 0xde, 0xbc, 0xb1, 0x05, 0x43, 0xbd, 0x38, 0xa8, 0x96, 0xbe,
  0x14, 0x82, 0x91, 0xbe, 0x1b, 0xb2, 0x31, 0xbc, 0xef, 0xe6, 0x75, 0xbe,
  0xee, 0x44, 0xee, 0x3e, 0x1c, 0x0b, 0xc2, 0xbd, 0x50, 0x08, 0x67, 0xbd,
  0x3c, 0x80, 0x7e, 0xbe, 0x3e, 0x39, 0xd9, 0xbd, 0xf9, 0xc2, 0x90, 0xbd,
  0xa2, 0x73, 0x63, 0x3e, 0x9d, 0x03, 0x21, 0x3e, 0x37, 0x8e, 0x84, 0x3e,
  0xa7, 0x58, 0x7d, 0x3e, 0xef, 0x29, 0x7b, 0x3c, 0x12, 0x1d, 0xb2, 0xbc,
  0x31, 0x9c, 0xd5, 0x3d, 0x55, 0x71, 0x7e, 0x3d, 0x00, 0xfb, 0x90, 0xbd,
  0x67, 0x9b, 0x90, 0xbd, 0x89, 0x10, 0xd7, 0x3c, 0x3f, 0xac, 0x56, 0xbd,
  0x2b, 0xdd, 0xdf, 0xbe, 0xb7, 0xba, 0x02, 0xbe, 0x24, 0x88, 0x8c, 0xbe,
  0x0d, 0xd4, 0xf1, 0x3d, 0x75, 0x74, 0x93, 0xbd, 0x05, 0xb5, 0x2b, 0x3e,
  0x71, 0x5b, 0x11, 0x3f, 0xd7, 0x35, 0x3b, 0xbe, 0xd4, 0x73, 0x17, 0x3d,
  0x39, 0x0d, 0xb6, 0xbe, 0x2a, 0x87, 0xb5, 0xbd, 0x54, 0x5f, 0xad, 0xbe,
  0x88, 0x56, 0xb2, 0x3e, 0x30, 0x17, 0x09, 0xbb, 0x17, 0xb2, 0x8c, 0xbd,
  0x92, 0x3a, 0xf3, 0xbe, 0xc5, 0xdd, 0x2f, 0x3e, 0x2c, 0x01, 0x55, 0x3e,
  0x3d, 0x4b, 0x69, 0xbd, 0x31, 0xb0, 0x10, 0x3e, 0x6b, 0x4f, 0xc9, 0x3e,
  0x83, 0x04, 0x90, 0x3e, 0x24, 0x4d, 0x33, 0x3e, 0xc3, 0x85, 0x8b, 0x3e,
  0xbb, 0xdd, 0xc8, 0x3d, 0x50, 0x5f, 0x19, 0xbd, 0xbd, 0x63, 0xa4, 0xbe,
  0x0d, 0xa5, 0x5b, 0xbe, 0x65, 0x60, 0x11, 0xbe, 0xe3, 0x6e, 0xe5, 0x3d,
  0x34, 0xdd, 0x2c, 0xbf, 0x1b, 0xd2, 0x80, 0x3d, 0x10, 0x40, 0x3a, 0x3d,
  0x1f, 0xde, 0xff, 0xbb, 0xb0, 0x30, 0xa8, 0xbe, 0x37, 0xa2, 0x9c, 0x3d,
  0x1e, 0xc7, 0xda, 0x3d, 0xa9, 0xe4, 0xae, 0xbd, 0x67, 0x3d, 0x87, 0x3e,
  0xd7, 0x10, 0xdc, 0xbd, 0x44, 0xf5, 0x48, 0xbb, 0xb3, 0x6e, 0x55, 0x3e,
  0x83, 0xad, 0x02, 0x3e, 0x51, 0x26, 0x2e, 0x3c, 0x49, 0x1f, 0x32, 0x3e,
  0xb4, 0x1d, 0x17, 0xbc, 0x6a, 0x60, 0xc6, 0xbc, 0x29, 0x82, 0xd1, 0x3d,
  0xb0, 0x4c, 0x7f, 0xbd, 0x45, 0x57, 0x49, 0x3a, 0x80, 0x1e, 0xe5, 0xbd,
  0x73, 0x50, 0x7e, 0xbe, 0xc5, 0x86, 0x96, 0x3d, 0x7f, 0x68, 0x34, 0xbd,
  0xb6, 0xe2, 0xa9, 0xbc, 0xbc, 0x99, 0x27, 0xbe, 0x1f, 0xe2, 0x1f, 0x3d,
  0x07, 0x70, 0x01, 0x3e, 0xc3, 0xd5, 0x21, 0xbe, 0x6b, 0xaa, 0x17, 0xbe,
  0x5d, 0xf2, 0x12, 0x3f, 0x45, 0xdc, 0xa0, 0xbe, 0x88, 0x66, 0x12, 0xbe,
  0x91, 0x7b, 0xd3, 0xbe, 0xc8, 0xb9, 0x82, 0x3b, 0x66, 0xb6, 0x66, 0x3c,
  0x7c, 0x6a, 0x83, 0xbe, 0xce, 0x8b, 0x9f, 0x3d, 0x34, 0x99, 0xcf, 0x3e,
  0xd2, 0x91, 0xc8, 0x3d, 0xd3, 0x9e, 0x5b, 0x3d, 0x2e, 0x3f, 0x07, 0x3e,
  0xb4, 0xdd, 0xa4, 0x3e, 0x45, 0xea, 0x2c, 0xbd, 0xb1, 0xf5, 0xd9, 0xbd,
  0x49, 0xbf, 0xa2, 0x3e, 0x59, 0xb8, 0x6b, 0x3d, 0xec, 0x4c, 0x05, 0xbd,
  0x5c, 0xba, 0x04, 0x3f, 0xb2, 0x92, 0x5d, 0x3c, 0x04, 0x88, 0x1e, 0xbe,
  0xc4, 0x12, 0x32, 0x3e, 0xd9, 0xee, 0xae, 0xbd, 0x66, 0xac, 0xed, 0xbc,
  0x9f, 0xb8, 0xf5, 0x3d, 0xeb, 0x3f, 0xea, 0xbd, 0x0e, 0xe3, 0xb5, 0xbe,
  0x77, 0xc6, 0x15, 0x3f, 0x5f, 0xe1, 0x49, 0xbe, 0x45, 0x00, 0xaf, 0xbd,
  0x53, 0x17, 0x02, 0x3d, 0x07, 0x1e, 0x80, 0xbd, 0xd7, 0xed, 0xd7, 0x3e,
  0xbc, 0xd4, 0x72, 0x3d, 0x6e, 0x92, 0x09, 0x3d, 0x8f, 0x95, 0x5a, 0x3e,
  0x3d, 0xe6, 0x77, 0xbe, 0x95, 0x7a, 0x62, 0x3d, 0xd5, 0x86, 0xfc, 0xbd,
  0x9c, 0x82, 0x96, 0xbe, 0x8c, 0xfb, 0x1f, 0xbd, 0x02, 0x0d, 0x8b, 0x3d,
  0xe4, 0x38, 0xc1, 0x3d, 0x4c, 0x40, 0x1b, 0xbe, 0x61, 0x8d, 0x73, 0x3e,
  0xc8, 0x53, 0x97, 0x3e, 0x67, 0x72, 0xbb, 0xbc, 0x3d, 0xd3, 0xd0, 0x3d,
  0xf6, 0x0f, 0x14, 0xbe, 0x5e, 0x0e, 0x04, 0xbf, 0x18, 0x35, 0xcc, 0xbd,
  0x32, 0xd6, 0x37, 0xbf, 0x14, 0x2f, 0x8d, 0xbe, 0xce, 0x71, 0x59, 0x3e,
  0x41, 0x0f, 0xf4, 0xbe, 0x4d, 0xe7, 0x6d, 0x3d, 0x00, 0x74, 0xae, 0x3b,
  0xa6, 0x62, 0xa1, 0x3e, 0x87, 0x29, 0x33, 0x3e, 0x67, 0x52, 0xa5, 0x3e,
  0x2b, 0x52, 0x32, 0xbf, 0xc8, 0x46, 0xb5, 0x3e, 0x13, 0x7a, 0x69, 0xbd,
  0xfd, 0xfc, 0xa0, 0x3e, 0x74, 0x9c, 0xeb, 0x3d, 0x35, 0xf1, 0x1c, 0x3e,
  0x43, 0x68, 0x3a, 0xbf, 0x0f, 0x0e, 0x86, 0x3e, 0xb7, 0x2d, 0xd0, 0x3d,
  0xf8, 0xe0, 0x9a, 0x3e, 0x33, 0x8b, 0xb5, 0x3d, 0x49, 0x6a, 0x51, 0xbe,
  0xa0, 0x81, 0x7d, 0xbd, 0xcf, 0x8e, 0x5d, 0xbe, 0x33, 0x9f, 0x8d, 0x3e,
  0x19, 0x6c, 0x46, 0xbe, 0x9c, 0xc2, 0xa7, 0xbe, 0x67, 0x9d, 0x91, 0x3e,
  0xe3, 0x85, 0x21, 0xbe, 0xa6, 0x20, 0x1a, 0xbe, 0xf3, 0x26, 0x8b, 0x3e,
  0x88, 0x1c, 0xb4, 0x3e, 0x43, 0x86, 0x72, 0xbe, 0xbf, 0xbe, 0x80, 0x3d,
  0xb4, 0x4d, 0x05, 0xbf, 0xba, 0x73, 0x44, 0xbe, 0xec, 0x34, 0x88, 0x3e,
  0xd0, 0x32, 0x00, 0x3f, 0x03, 0xca, 0xb9, 0xbd, 0x57, 0x43, 0x04, 0x3f,
  0xe3, 0x8b, 0x1a, 0xbe, 0x18, 0x61, 0x01, 0x3e, 0xf3, 0xf6, 0xa1, 0x3e,
  0x93, 0x9f, 0xbf, 0xbe, 0x5a, 0x59, 0x25, 0x3d, 0x30, 0x21, 0x49, 0xbe,
  0xe9, 0x0b, 0x97, 0xbe, 0x61, 0x2f, 0xa4, 0x3d, 0xb4, 0xcc, 0xf5, 0x3c,
  0x0e, 0x0b, 0xa9, 0x3d, 0xe0, 0xb7, 0x3e, 0x3d, 0x65, 0xf3, 0xb2, 0x3e,
  0x44, 0x10, 0x48, 0xbf, 0x26, 0xfd, 0xff, 0xff, 0x04, 0x00, 0x00, 0x00,
  0x08, 0x00, 0x00, 0x00, 0xff, 0xff, 0xff, 0xff, 0xf4, 0x02, 0x00, 0x00,
  0x3a, 0xfd, 0xff, 0xff, 0x04, 0x00, 0x00, 0x00, 0x04, 0x00, 0x00, 0x00,
  0x1e, 0x00, 0x00, 0x00, 0x4a, 0xfd, 0xff, 0xff, 0x04, 0x00, 0x00, 0x00,
  0x04, 0x00, 0x00, 0x00, 0x27, 0x00, 0x00, 0x00, 0x0c, 0xf5, 0xff, 0xff,
  0x5e, 0xfd, 0xff, 0xff, 0x04, 0x00, 0x00, 0x00, 0x04, 0x00, 0x00, 0x00,
  0x00, 0x00, 0x00, 0x00, 0x6e, 0xfd, 0xff, 0xff, 0x04, 0x00, 0x00, 0x00,
  0x04, 0x00, 0x00, 0x00, 0x01, 0x00, 0x00, 0x00, 0x7e, 0xfd, 0xff, 0xff,
  0x04, 0x00, 0x00, 0x00, 0x04, 0x00, 0x00, 0x00, 0xe9, 0x9b, 0xe8, 0xbd,
  0x8e, 0xfd, 0xff, 0xff, 0x04, 0x00, 0x00, 0x00, 0x6c, 0x00, 0x00, 0x00,
  0xed, 0xeb, 0x7e, 0x3e, 0x66, 0xd0, 0x62, 0x3f, 0x53, 0xb3, 0xb8, 0x3e,
  0x98, 0xe6, 0x7e, 0x3e, 0xc9, 0xd0, 0xa1, 0x3e, 0x21, 0x8f, 0x21, 0xbe,
  0x49, 0x61, 0x2e, 0x3f, 0xfc, 0x06, 0xac, 0x3e, 0x6a, 0xc8, 0x0e, 0x3f,
  0x3e, 0xb1, 0x87, 0xbe, 0xf4, 0x57, 0x3e, 0x3f, 0x5a, 0xd9, 0x65, 0x3f,
  0x31, 0xa9, 0xbf, 0xbe, 0x98, 0x98, 0x03, 0xbe, 0x18, 0x82, 0xc2, 0xbe,
  0xc8, 0x9a, 0x89, 0xbf, 0x12, 0x4a, 0x4d, 0xbe, 0x1d, 0x7e, 0x82, 0xbf,
  0x3a, 0xa5, 0xc0, 0xbd, 0x70, 0x12, 0x28, 0x3f, 0x5c, 0x62, 0x96, 0xbe,
  0x95, 0xd0, 0x60, 0x3f, 0x80, 0x2c, 0x00, 0xbd, 0xda, 0xb0, 0x00, 0xbf,
  0x0b, 0xfb, 0xa1, 0xbe, 0x42, 0xcd, 0x89, 0xbe, 0xe8, 0x68, 0x6a, 0xbf,
  0x06, 0xfe, 0xff, 0xff, 0x04, 0x00, 0x00, 0x00, 0x0c, 0x00, 0x00, 0x00,
  0xdd, 0x2c, 0x85, 0x3a, 0xc3, 0x5e, 0xf2, 0xbe, 0x74, 0x81, 0x10, 0x3e,
  0xd0, 0xf5, 0xff, 0xff, 0xd4, 0xf5, 0xff, 0xff, 0x0f, 0x00, 0x00, 0x00,
  0x4d, 0x4c, 0x49, 0x52, 0x20, 0x43, 0x6f, 0x6e, 0x76, 0x65, 0x72, 0x74,
  0x65, 0x64, 0x2e, 0x00, 0x01, 0x00, 0x00, 0x00, 0x14, 0x00, 0x00, 0x00,
  0x00, 0x00, 0x0e, 0x00, 0x18, 0x00, 0x14, 0x00, 0x10, 0x00, 0x0c, 0x00,
  0x08, 0x00, 0x04, 0x00, 0x0e, 0x00, 0x00, 0x00, 0x14, 0x00, 0x00, 0x00,
  0x1c, 0x00, 0x00, 0x00, 0x6c, 0x02, 0x00, 0x00, 0x70, 0x02, 0x00, 0x00,
  0x74, 0x02, 0x00, 0x00, 0x04, 0x00, 0x00, 0x00, 0x6d, 0x61, 0x69, 0x6e,
  0x00, 0x00, 0x00, 0x00, 0x09, 0x00, 0x00, 0x00, 0x1c, 0x02, 0x00, 0x00,
  0xbc, 0x01, 0x00, 0x00, 0x64, 0x01, 0x00, 0x00, 0x3c, 0x01, 0x00, 0x00,
  0xdc, 0x00, 0x00, 0x00, 0x88, 0x00, 0x00, 0x00, 0x60, 0x00, 0x00, 0x00,
  0x28, 0x00, 0x00, 0x00, 0x04, 0x00, 0x00, 0x00, 0xe6, 0xfe, 0xff, 0xff,
  0x0c, 0x00, 0x00, 0x00, 0x10, 0x00, 0x00, 0x00, 0x07, 0x00, 0x00, 0x00,
  0x01, 0x00, 0x00, 0x00, 0x13, 0x00, 0x00, 0x00, 0x01, 0x00, 0x00, 0x00,
  0x12, 0x00, 0x00, 0x00, 0x92, 0xfe, 0xff, 0xff, 0x14, 0x00, 0x00, 0x00,
  0x00, 0x00, 0x00, 0x08, 0x10, 0x00, 0x00, 0x00, 0x14, 0x00, 0x00, 0x00,
  0x06, 0x00, 0x00, 0x00, 0x88, 0xf6, 0xff, 0xff, 0x01, 0x00, 0x00, 0x00,
  0x12, 0x00, 0x00, 0x00, 0x03, 0x00, 0x00, 0x00, 0x11, 0x00, 0x00, 0x00,
  0x0a, 0x00, 0x00, 0x00, 0x03, 0x00, 0x00, 0x00, 0x3a, 0xff, 0xff, 0xff,
  0x0c, 0x00, 0x00, 0x00, 0x10, 0x00, 0x00, 0x00, 0x03, 0x00, 0x00, 0x00,
  0x01, 0x00, 0x00, 0x00, 0x11, 0x00, 0x00, 0x00, 0x02, 0x00, 0x00, 0x00,
  0x10, 0x00, 0x00, 0x00, 0x09, 0x00, 0x00, 0x00, 0xea, 0xfe, 0xff, 0xff,
  0x24, 0x00, 0x00, 0x00, 0x00, 0x00, 0x00, 0x05, 0x34, 0x00, 0x00, 0x00,
  0x38, 0x00, 0x00, 0x00, 0x05, 0x00, 0x00, 0x00, 0x00, 0x00, 0x0e, 0x00,
  0x18, 0x00, 0x17, 0x00, 0x10, 0x00, 0x0c, 0x00, 0x08, 0x00, 0x04, 0x00,
  0x0e, 0x00, 0x00, 0x00, 0x02, 0x00, 0x00, 0x00, 0x02, 0x00, 0x00, 0x00,
  0x02, 0x00, 0x00, 0x00, 0x02, 0x00, 0x00, 0x00, 0x00, 0x00, 0x00, 0x01,
  0x01, 0x00, 0x00, 0x00, 0x10, 0x00, 0x00, 0x00, 0x01, 0x00, 0x00, 0x00,
  0x0f, 0x00, 0x00, 0x00, 0x3a, 0xff, 0xff, 0xff, 0x20, 0x00, 0x00, 0x00,
  0x00, 0x00, 0x00, 0x01, 0x2c, 0x00, 0x00, 0x00, 0x30, 0x00, 0x00, 0x00,
  0x04, 0x00, 0x00, 0x00, 0x0c, 0x00, 0x14, 0x00, 0x13, 0x00, 0x0c, 0x00,
  0x08, 0x00, 0x07, 0x00, 0x0c, 0x00, 0x00, 0x00, 0x00, 0x00, 0x00, 0x01,
  0x01, 0x00, 0x00, 0x00, 0x01, 0x00, 0x00, 0x00, 0x00, 0x00, 0x00, 0x01,
  0x01, 0x00, 0x00, 0x00, 0x0f, 0x00, 0x00, 0x00, 0x03, 0x00, 0x00, 0x00,
  0x0e, 0x00, 0x00, 0x00, 0x02, 0x00, 0x00, 0x00, 0x01, 0x00, 0x00, 0x00,
  0x00, 0x00, 0x0a, 0x00, 0x10, 0x00, 0x0c, 0x00, 0x08, 0x00, 0x04, 0x00,
  0x0a, 0x00, 0x00, 0x00, 0x0c, 0x00, 0x00, 0x00, 0x10, 0x00, 0x00, 0x00,
  0x03, 0x00, 0x00, 0x00, 0x01, 0x00, 0x00, 0x00, 0x0e, 0x00, 0x00, 0x00,
  0x02, 0x00, 0x00, 0x00, 0x00, 0x00, 0x00, 0x00, 0x0d, 0x00, 0x00, 0x00,
  0xba, 0xff, 0xff, 0xff, 0x1c, 0x00, 0x00, 0x00, 0x00, 0x00, 0x00, 0x3b,
  0x1c, 0x00, 0x00, 0x00, 0x20, 0x00, 0x00, 0x00, 0x02, 0x00, 0x00, 0x00,
  0x00, 0x00, 0x06, 0x00, 0x08, 0x00, 0x04, 0x00, 0x06, 0x00, 0x00, 0x00,
  0x04, 0x00, 0x00, 0x00, 0x01, 0x00, 0x00, 0x00, 0x0d, 0x00, 0x00, 0x00,
  0x04, 0x00, 0x00, 0x00, 0x0c, 0x00, 0x00, 0x00, 0x08, 0x00, 0x00, 0x00,
  0x07, 0x00, 0x00, 0x00, 0x06, 0x00, 0x00, 0x00, 0x00, 0x00, 0x0e, 0x00,
  0x1a, 0x00, 0x14, 0x00, 0x10, 0x00, 0x0c, 0x00, 0x0b, 0x00, 0x04, 0x00,
  0x0e, 0x00, 0x00, 0x00, 0x24, 0x00, 0x00, 0x00, 0x00, 0x00, 0x00, 0x20,
  0x24, 0x00, 0x00, 0x00, 0x28, 0x00, 0x00, 0x00, 0x01, 0x00, 0x00, 0x00,
  0x00, 0x00, 0x0e, 0x00, 0x08, 0x00, 0x00, 0x00, 0x00, 0x00, 0x00, 0x00,
  0x00, 0x00, 0x04, 0x00, 0x0e, 0x00, 0x00, 0x00, 0x01, 0x00, 0x00, 0x00,
  0x01, 0x00, 0x00, 0x00, 0x0c, 0x00, 0x00, 0x00, 0x04, 0x00, 0x00, 0x00,
  0x0b, 0x00, 0x00, 0x00, 0x05, 0x00, 0x00, 0x00, 0x04, 0x00, 0x00, 0x00,
  0x04, 0x00, 0x00, 0x00, 0x00, 0x00, 0x0e, 0x00, 0x16, 0x00, 0x00, 0x00,
  0x10, 0x00, 0x0c, 0x00, 0x0b, 0x00, 0x04, 0x00, 0x0e, 0x00, 0x00, 0x00,
  0x18, 0x00, 0x00, 0x00, 0x00, 0x00, 0x00, 0x37, 0x18, 0x00, 0x00, 0x00,
  0x1c, 0x00, 0x00, 0x00, 0x00, 0x00, 0x06, 0x00, 0x08, 0x00, 0x07, 0x00,
  0x06, 0x00, 0x00, 0x00, 0x00, 0x00, 0x00, 0x02, 0x01, 0x00, 0x00, 0x00,
  0x0b, 0x00, 0x00, 0x00, 0x01, 0x00, 0x00, 0x00, 0x00, 0x00, 0x00, 0x00,
  0x01, 0x00, 0x00, 0x00, 0x13, 0x00, 0x00, 0x00, 0x01, 0x00, 0x00, 0x00,
  0x00, 0x00, 0x00, 0x00, 0x14, 0x00, 0x00, 0x00, 0x44, 0x07, 0x00, 0x00,
  0xd4, 0x06, 0x00, 0x00, 0x68, 0x06, 0x00, 0x00, 0x14, 0x06, 0x00, 0x00,
  0xb8, 0x05, 0x00, 0x00, 0x48, 0x05, 0x00, 0x00, 0xf8, 0x04, 0x00, 0x00,
  0xa8, 0x04, 0x00, 0x00, 0x58, 0x04, 0x00, 0x00, 0x0c, 0x04, 0x00, 0x00,
  0xc4, 0x03, 0x00, 0x00, 0x78, 0x03, 0x00, 0x00, 0x28, 0x03, 0x00, 0x00,
  0xd4, 0x02, 0x00, 0x00, 0x68, 0x02, 0x00, 0x00, 0xa4, 0x01, 0x00, 0x00,
  0x30, 0x01, 0x00, 0x00, 0xd4, 0x00, 0x00, 0x00, 0x60, 0x00, 0x00, 0x00,
  0x04, 0x00, 0x00, 0x00, 0x22, 0xf9, 0xff, 0xff, 0x00, 0x00, 0x00, 0x01,
  0x14, 0x00, 0x00, 0x00, 0x1c, 0x00, 0x00, 0x00, 0x1c, 0x00, 0x00, 0x00,
  0x14, 0x00, 0x00, 0x00, 0x34, 0x00, 0x00, 0x00, 0x02, 0x00, 0x00, 0x00,
  0xff, 0xff, 0xff, 0xff, 0x01, 0x00, 0x00, 0x00, 0x08, 0xf9, 0xff, 0xff,
  0x19, 0x00, 0x00, 0x00, 0x53, 0x74, 0x61, 0x74, 0x65, 0x66, 0x75, 0x6c,
  0x50, 0x61, 0x72, 0x74, 0x69, 0x74, 0x69, 0x6f, 0x6e, 0x65, 0x64, 0x43,
  0x61, 0x6c, 0x6c, 0x3a, 0x30, 0x00, 0x00, 0x00, 0x02, 0x00, 0x00, 0x00,
  0x01, 0x00, 0x00, 0x00, 0x01, 0x00, 0x00, 0x00, 0x7a, 0xf9, 0xff, 0xff,
  0x00, 0x00, 0x00, 0x01, 0x14, 0x00, 0x00, 0x00, 0x1c, 0x00, 0x00, 0x00,
  0x1c, 0x00, 0x00, 0x00, 0x13, 0x00, 0x00, 0x00, 0x4c, 0x00, 0x00, 0x00,
  0x02, 0x00, 0x00, 0x00, 0xff, 0xff, 0xff, 0xff, 0x01, 0x00, 0x00, 0x00,
  0x60, 0xf9, 0xff, 0xff, 0x30, 0x00, 0x00, 0x00, 0x73, 0x65, 0x71, 0x75,
  0x65, 0x6e, 0x74, 0x69, 0x61, 0x6c, 0x2f, 0x64, 0x65, 0x6e, 0x73, 0x65,
  0x2f, 0x4d, 0x61, 0x74, 0x4d, 0x75, 0x6c, 0x3b, 0x73, 0x65, 0x71, 0x75,
  0x65, 0x6e, 0x74, 0x69, 0x61, 0x6c, 0x2f, 0x64, 0x65, 0x6e, 0x73, 0x65,
  0x2f, 0x42, 0x69, 0x61, 0x73, 0x41, 0x64, 0x64, 0x00, 0x00, 0x00, 0x00,
  0x02, 0x00, 0x00, 0x00, 0x01, 0x00, 0x00, 0x00, 0x01, 0x00, 0x00, 0x00,
  0xea, 0xf9, 0xff, 0xff, 0x00, 0x00, 0x00, 0x01, 0x14, 0x00, 0x00, 0x00,
  0x1c, 0x00, 0x00, 0x00, 0x1c, 0x00, 0x00, 0x00, 0x12, 0x00, 0x00, 0x00,
  0x34, 0x00, 0x00, 0x00, 0x02, 0x00, 0x00, 0x00, 0xff, 0xff, 0xff, 0xff,
  0xf4, 0x02, 0x00, 0x00, 0xd0, 0xf9, 0xff, 0xff, 0x1a, 0x00, 0x00, 0x00,
  0x73, 0x65, 0x71, 0x75, 0x65, 0x6e, 0x74, 0x69, 0x61, 0x6c, 0x2f, 0x66,
  0x6c, 0x61, 0x74, 0x74, 0x65, 0x6e, 0x2f, 0x52, 0x65, 0x73, 0x68, 0x61,
  0x70, 0x65, 0x00, 0x00, 0x02, 0x00, 0x00, 0x00, 0x01, 0x00, 0x00, 0x00,
  0xf4, 0x02, 0x00, 0x00, 0x42, 0xfa, 0xff, 0xff, 0x00, 0x00, 0x00, 0x01,
  0x14, 0x00, 0x00, 0x00, 0x24, 0x00, 0x00, 0x00, 0x24, 0x00, 0x00, 0x00,
  0x11, 0x00, 0x00, 0x00, 0x44, 0x00, 0x00, 0x00, 0x04, 0x00, 0x00, 0x00,
  0xff, 0xff, 0xff, 0xff, 0x0e, 0x00, 0x00, 0x00, 0x12, 0x00, 0x00, 0x00,
  0x03, 0x00, 0x00, 0x00, 0x30, 0xfa, 0xff, 0xff, 0x20, 0x00, 0x00, 0x00,
  0x73, 0x65, 0x71, 0x75, 0x65, 0x6e, 0x74, 0x69, 0x61, 0x6c, 0x2f, 0x6d,
  0x61, 0x78, 0x5f, 0x70, 0x6f, 0x6f, 0x6c, 0x69, 0x6e, 0x67, 0x32, 0x64,
  0x2f, 0x4d, 0x61, 0x78, 0x50, 0x6f, 0x6f, 0x6c, 0x00, 0x00, 0x00, 0x00,
  0x04, 0x00, 0x00, 0x00, 0x01, 0x00, 0x00, 0x00, 0x0e, 0x00, 0x00, 0x00,
  0x12, 0x00, 0x00, 0x00, 0x03, 0x00, 0x00, 0x00, 0xb2, 0xfa, 0xff, 0xff,
  0x00, 0x00, 0x00, 0x01, 0x14, 0x00, 0x00, 0x00, 0x24, 0x00, 0x00, 0x00,
  0x24, 0x00, 0x00, 0x00, 0x10, 0x00, 0x00, 0x00, 0x94, 0x00, 0x00, 0x00,
  0x04, 0x00, 0x00, 0x00, 0xff, 0xff, 0xff, 0xff, 0x1c, 0x00, 0x00, 0x00,
  0x25, 0x00, 0x00, 0x00, 0x03, 0x00, 0x00, 0x00, 0xa0, 0xfa, 0xff, 0xff,
  0x72, 0x00, 0x00, 0x00, 0x73, 0x65, 0x71, 0x75, 0x65, 0x6e, 0x74, 0x69,
  0x61, 0x6c, 0x2f, 0x63, 0x6f, 0x6e, 0x76, 0x32, 0x64, 0x2f, 0x52, 0x65,
  0x6c, 0x75, 0x3b, 0x73, 0x65, 0x71, 0x75, 0x65, 0x6e, 0x74, 0x69, 0x61,
  0x6c, 0x2f, 0x63, 0x6f, 0x6e, 0x76, 0x32, 0x64, 0x2f, 0x42, 0x69, 0x61,
  0x73, 0x41, 0x64, 0x64, 0x3b, 0x73, 0x65, 0x71, 0x75, 0x65, 0x6e, 0x74,
  0x69, 0x61, 0x6c, 0x2f, 0x63, 0x6f, 0x6e, 0x76, 0x32, 0x64, 0x2f, 0x43,
  0x6f, 0x6e, 0x76, 0x32, 0x44, 0x3b, 0x73, 0x65, 0x71, 0x75, 0x65, 0x6e,
  0x74, 0x69, 0x61, 0x6c, 0x2f, 0x63, 0x6f, 0x6e, 0x76, 0x32, 0x64, 0x2f,
  0x42, 0x69, 0x61, 0x73, 0x41, 0x64, 0x64, 0x2f, 0x52, 0x65, 0x61, 0x64,
  0x56, 0x61, 0x72, 0x69, 0x61, 0x62, 0x6c, 0x65, 0x4f, 0x70, 0x00, 0x00,
  0x04, 0x00, 0x00, 0x00, 0x01, 0x00, 0x00, 0x00, 0x1c, 0x00, 0x00, 0x00,
  0x25, 0x00, 0x00, 0x00, 0x03, 0x00, 0x00, 0x00, 0x72, 0xfb, 0xff, 0xff,
  0x00, 0x00, 0x00, 0x01, 0x14, 0x00, 0x00, 0x00, 0x24, 0x00, 0x00, 0x00,
  0x24, 0x00, 0x00, 0x00, 0x0f, 0x00, 0x00, 0x00, 0x3c, 0x00, 0x00, 0x00,
  0x04, 0x00, 0x00, 0x00, 0xff, 0xff, 0xff, 0xff, 0x1e, 0x00, 0x00, 0x00,
  0x27, 0x00, 0x00, 0x00, 0x01, 0x00, 0x00, 0x00, 0x60, 0xfb, 0xff, 0xff,
  0x1a, 0x00, 0x00, 0x00, 0x73, 0x65, 0x71, 0x75, 0x65, 0x6e, 0x74, 0x69,
  0x61, 0x6c, 0x2f, 0x72, 0x65, 0x73, 0x68, 0x61, 0x70, 0x65, 0x2f, 0x52,
  0x65, 0x73, 0x68, 0x61, 0x70, 0x65, 0x00, 0x00, 0x04, 0x00, 0x00, 0x00,
  0x01, 0x00, 0x00, 0x00, 0x1e, 0x00, 0x00, 0x00, 0x27, 0x00, 0x00, 0x00,
  0x01, 0x00, 0x00, 0x00, 0x56, 0xfd, 0xff, 0xff, 0x00, 0x00, 0x00, 0x01,
  0x14, 0x00, 0x00, 0x00, 0x14, 0x00, 0x00, 0x00, 0x0e, 0x00, 0x00, 0x00,
  0x00, 0x00, 0x00, 0x02, 0x30, 0x00, 0x00, 0x00, 0xb4, 0xfb, 0xff, 0xff,
  0x20, 0x00, 0x00, 0x00, 0x73, 0x65, 0x71, 0x75, 0x65, 0x6e, 0x74, 0x69,
  0x61, 0x6c, 0x2f, 0x72, 0x65, 0x73, 0x68, 0x61, 0x70, 0x65, 0x2f, 0x52,
  0x65, 0x73, 0x68, 0x61, 0x70, 0x65, 0x2f, 0x73, 0x68, 0x61, 0x70, 0x65,
  0x00, 0x00, 0x00, 0x00, 0x01, 0x00, 0x00, 0x00, 0x04, 0x00, 0x00, 0x00,
  0xa6, 0xfd, 0xff, 0xff, 0x00, 0x00, 0x00, 0x01, 0x14, 0x00, 0x00, 0x00,
  0x14, 0x00, 0x00, 0x00, 0x0d, 0x00, 0x00, 0x00, 0x00, 0x00, 0x00, 0x02,
  0x30, 0x00, 0x00, 0x00, 0x04, 0xfc, 0xff, 0xff, 0x20, 0x00, 0x00, 0x00,
  0x73, 0x65, 0x71, 0x75, 0x65, 0x6e, 0x74, 0x69, 0x61, 0x6c, 0x2f, 0x72,
  0x65, 0x73, 0x68, 0x61, 0x70, 0x65, 0x2f, 0x73, 0x74, 0x72, 0x69, 0x64,
  0x65, 0x64, 0x5f, 0x73, 0x6c, 0x69, 0x63, 0x65, 0x00, 0x00, 0x00, 0x00,
  0x00, 0x00, 0x00, 0x00, 0xf2, 0xfd, 0xff, 0xff, 0x00, 0x00, 0x00, 0x01,
  0x14, 0x00, 0x00, 0x00, 0x14, 0x00, 0x00, 0x00, 0x0c, 0x00, 0x00, 0x00,
  0x00, 0x00, 0x00, 0x02, 0x28, 0x00, 0x00, 0x00, 0x50, 0xfc, 0xff, 0xff,
  0x18, 0x00, 0x00, 0x00, 0x73, 0x65, 0x71, 0x75, 0x65, 0x6e, 0x74, 0x69,
  0x61, 0x6c, 0x2f, 0x72, 0x65, 0x73, 0x68, 0x61, 0x70, 0x65, 0x2f, 0x53,
  0x68, 0x61, 0x70, 0x65, 0x00, 0x00, 0x00, 0x00, 0x01, 0x00, 0x00, 0x00,
  0x03, 0x00, 0x00, 0x00, 0x2a, 0xfd, 0xff, 0xff, 0x00, 0x00, 0x00, 0x01,
  0x10, 0x00, 0x00, 0x00, 0x10, 0x00, 0x00, 0x00, 0x0b, 0x00, 0x00, 0x00,
  0x24, 0x00, 0x00, 0x00, 0x94, 0xfc, 0xff, 0xff, 0x17, 0x00, 0x00, 0x00,
  0x73, 0x65, 0x71, 0x75, 0x65, 0x6e, 0x74, 0x69, 0x61, 0x6c, 0x2f, 0x64,
  0x65, 0x6e, 0x73, 0x65, 0x2f, 0x4d, 0x61, 0x74, 0x4d, 0x75, 0x6c, 0x00,
  0x02, 0x00, 0x00, 0x00, 0x01, 0x00, 0x00, 0x00, 0xf4, 0x02, 0x00, 0x00,
  0x7e, 0xfe, 0xff, 0xff, 0x00, 0x00, 0x00, 0x01, 0x14, 0x00, 0x00, 0x00,
  0x14, 0x00, 0x00, 0x00, 0x0a, 0x00, 0x00, 0x00, 0x00, 0x00, 0x00, 0x02,
  0x28, 0x00, 0x00, 0x00, 0xdc, 0xfc, 0xff, 0xff, 0x18, 0x00, 0x00, 0x00,
  0x73, 0x65, 0x71, 0x75, 0x65, 0x6e, 0x74, 0x69, 0x61, 0x6c, 0x2f, 0x66,
  0x6c, 0x61, 0x74, 0x74, 0x65, 0x6e, 0x2f, 0x43, 0x6f, 0x6e, 0x73, 0x74,
  0x00, 0x00, 0x00, 0x00, 0x01, 0x00, 0x00, 0x00, 0x02, 0x00, 0x00, 0x00,
  0xc6, 0xfe, 0xff, 0xff, 0x00, 0x00, 0x00, 0x01, 0x14, 0x00, 0x00, 0x00,
  0x14, 0x00, 0x00, 0x00, 0x09, 0x00, 0x00, 0x00, 0x00, 0x00, 0x00, 0x02,
  0x30, 0x00, 0x00, 0x00, 0x24, 0xfd, 0xff, 0xff, 0x22, 0x00, 0x00, 0x00,
  0x73, 0x65, 0x71, 0x75, 0x65, 0x6e, 0x74, 0x69, 0x61, 0x6c, 0x2f, 0x72,
  0x65, 0x73, 0x68, 0x61, 0x70, 0x65, 0x2f, 0x52, 0x65, 0x73, 0x68, 0x61,
  0x70, 0x65, 0x2f, 0x73, 0x68, 0x61, 0x70, 0x65, 0x2f, 0x31, 0x00, 0x00,
  0x00, 0x00, 0x00, 0x00, 0x12, 0xff, 0xff, 0xff, 0x00, 0x00, 0x00, 0x01,
  0x14, 0x00, 0x00, 0x00, 0x14, 0x00, 0x00, 0x00, 0x08, 0x00, 0x00, 0x00,
  0x00, 0x00, 0x00, 0x02, 0x30, 0x00, 0x00, 0x00, 0x70, 0xfd, 0xff, 0xff,
  0x22, 0x00, 0x00, 0x00, 0x73, 0x65, 0x71, 0x75, 0x65, 0x6e, 0x74, 0x69,
  0x61, 0x6c, 0x2f, 0x72, 0x65, 0x73, 0x68, 0x61, 0x70, 0x65, 0x2f, 0x52,
  0x65, 0x73, 0x68, 0x61, 0x70, 0x65, 0x2f, 0x73, 0x68, 0x61, 0x70, 0x65,
  0x2f, 0x32, 0x00, 0x00, 0x00, 0x00, 0x00, 0x00, 0x5e, 0xff, 0xff, 0xff,
  0x00, 0x00, 0x00, 0x01, 0x14, 0x00, 0x00, 0x00, 0x14, 0x00, 0x00, 0x00,
  0x05, 0x00, 0x00, 0x00, 0x00, 0x00, 0x00, 0x02, 0x30, 0x00, 0x00, 0x00,
  0xbc, 0xfd, 0xff, 0xff, 0x22, 0x00, 0x00, 0x00, 0x73, 0x65, 0x71, 0x75,
  0x65, 0x6e, 0x74, 0x69, 0x61, 0x6c, 0x2f, 0x72, 0x65, 0x73, 0x68, 0x61,
  0x70, 0x65, 0x2f, 0x52, 0x65, 0x73, 0x68, 0x61, 0x70, 0x65, 0x2f, 0x73,
  0x68, 0x61, 0x70, 0x65, 0x2f, 0x33, 0x00, 0x00, 0x00, 0x00, 0x00, 0x00,
  0xaa, 0xff, 0xff, 0xff, 0x00, 0x00, 0x00, 0x01, 0x14, 0x00, 0x00, 0x00,
  0x14, 0x00, 0x00, 0x00, 0x06, 0x00, 0x00, 0x00, 0x00, 0x00, 0x00, 0x02,
  0x34, 0x00, 0x00, 0x00, 0x08, 0xfe, 0xff, 0xff, 0x26, 0x00, 0x00, 0x00,
  0x73, 0x65, 0x71, 0x75, 0x65, 0x6e, 0x74, 0x69, 0x61, 0x6c, 0x2f, 0x72,
  0x65, 0x73, 0x68, 0x61, 0x70, 0x65, 0x2f, 0x73, 0x74, 0x72, 0x69, 0x64,
  0x65, 0x64, 0x5f, 0x73, 0x6c, 0x69, 0x63, 0x65, 0x2f, 0x73, 0x74, 0x61,
  0x63, 0x6b, 0x00, 0x00, 0x01, 0x00, 0x00, 0x00, 0x01, 0x00, 0x00, 0x00,
  0x00, 0x00, 0x16, 0x00, 0x1c, 0x00, 0x18, 0x00, 0x17, 0x00, 0x10, 0x00,
  0x0c, 0x00, 0x08, 0x00, 0x00, 0x00, 0x00, 0x00, 0x00, 0x00, 0x07, 0x00,
  0x16, 0x00, 0x00, 0x00, 0x00, 0x00, 0x00, 0x01, 0x14, 0x00, 0x00, 0x00,
  0x14, 0x00, 0x00, 0x00, 0x05, 0x00, 0x00, 0x00, 0x00, 0x00, 0x00, 0x02,
  0x38, 0x00, 0x00, 0x00, 0x74, 0xfe, 0xff, 0xff, 0x28, 0x00, 0x00, 0x00,
  0x73, 0x65, 0x71, 0x75, 0x65, 0x6e, 0x74, 0x69, 0x61, 0x6c, 0x2f, 0x72,
  0x65, 0x73, 0x68, 0x61, 0x70, 0x65, 0x2f, 0x73, 0x74, 0x72, 0x69, 0x64,
  0x65, 0x64, 0x5f, 0x73, 0x6c, 0x69, 0x63, 0x65, 0x2f, 0x73, 0x74, 0x61,
  0x63, 0x6b, 0x5f, 0x31, 0x00, 0x00, 0x00, 0x00, 0x01, 0x00, 0x00, 0x00,
  0x01, 0x00, 0x00, 0x00, 0x5e, 0xff, 0xff, 0xff, 0x00, 0x00, 0x00, 0x01,
  0x10, 0x00, 0x00, 0x00, 0x10, 0x00, 0x00, 0x00, 0x04, 0x00, 0x00, 0x00,
  0x34, 0x00, 0x00, 0x00, 0xc8, 0xfe, 0xff, 0xff, 0x27, 0x00, 0x00, 0x00,
  0x73, 0x65, 0x71, 0x75, 0x65, 0x6e, 0x74, 0x69, 0x61, 0x6c, 0x2f, 0x64,
  0x65, 0x6e, 0x73, 0x65, 0x2f, 0x42, 0x69, 0x61, 0x73, 0x41, 0x64, 0x64,
  0x2f, 0x52, 0x65, 0x61, 0x64, 0x56, 0x61, 0x72, 0x69, 0x61, 0x62, 0x6c,
  0x65, 0x4f, 0x70, 0x00, 0x01, 0x00, 0x00, 0x00, 0x01, 0x00, 0x00, 0x00,
  0xae, 0xff, 0xff, 0xff, 0x00, 0x00, 0x00, 0x01, 0x10, 0x00, 0x00, 0x00,
  0x10, 0x00, 0x00, 0x00, 0x03, 0x00, 0x00, 0x00, 0x28, 0x00, 0x00, 0x00,
  0x18, 0xff, 0xff, 0xff, 0x18, 0x00, 0x00, 0x00, 0x73, 0x65, 0x71, 0x75,
  0x65, 0x6e, 0x74, 0x69, 0x61, 0x6c, 0x2f, 0x63, 0x6f, 0x6e, 0x76, 0x32,
  0x64, 0x2f, 0x43, 0x6f, 0x6e, 0x76, 0x32, 0x44, 0x00, 0x00, 0x00, 0x00,
  0x04, 0x00, 0x00, 0x00, 0x03, 0x00, 0x00, 0x00, 0x03, 0x00, 0x00, 0x00,
  0x03, 0x00, 0x00, 0x00, 0x01, 0x00, 0x00, 0x00, 0x00, 0x00, 0x16, 0x00,
  0x18, 0x00, 0x14, 0x00, 0x00, 0x00, 0x10, 0x00, 0x0c, 0x00, 0x08, 0x00,
  0x00, 0x00, 0x00, 0x00, 0x00, 0x00, 0x07, 0x00, 0x16, 0x00, 0x00, 0x00,
  0x00, 0x00, 0x00, 0x01, 0x10, 0x00, 0x00, 0x00, 0x10, 0x00, 0x00, 0x00,
  0x02, 0x00, 0x00, 0x00, 0x38, 0x00, 0x00, 0x00, 0x80, 0xff, 0xff, 0xff,
  0x28, 0x00, 0x00, 0x00, 0x73, 0x65, 0x71, 0x75, 0x65, 0x6e, 0x74, 0x69,
  0x61, 0x6c, 0x2f, 0x63, 0x6f, 0x6e, 0x76, 0x32, 0x64, 0x2f, 0x42, 0x69,
  0x61, 0x73, 0x41, 0x64, 0x64, 0x2f, 0x52, 0x65, 0x61, 0x64, 0x56, 0x61,
  0x72, 0x69, 0x61, 0x62, 0x6c, 0x65, 0x4f, 0x70, 0x00, 0x00, 0x00, 0x00,
  0x01, 0x00, 0x00, 0x00, 0x03, 0x00, 0x00, 0x00, 0x00, 0x00, 0x16, 0x00,
  0x1c, 0x00, 0x18, 0x00, 0x00, 0x00, 0x14, 0x00, 0x10, 0x00, 0x0c, 0x00,
  0x00, 0x00, 0x00, 0x00, 0x08, 0x00, 0x07, 0x00, 0x16, 0x00, 0x00, 0x00,
  0x00, 0x00, 0x00, 0x01, 0x14, 0x00, 0x00, 0x00, 0x24, 0x00, 0x00, 0x00,
  0x24, 0x00, 0x00, 0x00, 0x01, 0x00, 0x00, 0x00, 0x38, 0x00, 0x00, 0x00,
  0x03, 0x00, 0x00, 0x00, 0xff, 0xff, 0xff, 0xff, 0x1e, 0x00, 0x00, 0x00,
  0x27, 0x00, 0x00, 0x00, 0x04, 0x00, 0x04, 0x00, 0x04, 0x00, 0x00, 0x00,
  0x15, 0x00, 0x00, 0x00, 0x73, 0x65, 0x72, 0x76, 0x69, 0x6e, 0x67, 0x5f,
  0x64, 0x65, 0x66, 0x61, 0x75, 0x6c, 0x74, 0x5f, 0x6d, 0x65, 0x6c, 0x3a,
  0x30, 0x00, 0x00, 0x00, 0x03, 0x00, 0x00, 0x00, 0x01, 0x00, 0x00, 0x00,
  0x1e, 0x00, 0x00, 0x00, 0x27, 0x00, 0x00, 0x00, 0x08, 0x00, 0x00, 0x00,
  0x80, 0x00, 0x00, 0x00, 0x64, 0x00, 0x00, 0x00, 0x54, 0x00, 0x00, 0x00,
  0x44, 0x00, 0x00, 0x00, 0x34, 0x00, 0x00, 0x00, 0x24, 0x00, 0x00, 0x00,
  0x14, 0x00, 0x00, 0x00, 0x04, 0x00, 0x00, 0x00, 0xac, 0xff, 0xff, 0xff,
  0x0e, 0x00, 0x00, 0x00, 0x00, 0x00, 0x00, 0x0e, 0xb8, 0xff, 0xff, 0xff,
  0x09, 0x00, 0x00, 0x00, 0x00, 0x00, 0x00, 0x09, 0xc4, 0xff, 0xff, 0xff,
  0x11, 0x00, 0x00, 0x00, 0x00, 0x00, 0x00, 0x11, 0xd0, 0xff, 0xff, 0xff,
  0x03, 0x00, 0x00, 0x00, 0x00, 0x00, 0x00, 0x03, 0xdc, 0xff, 0xff, 0xff,
  0x16, 0x00, 0x00, 0x00, 0x00, 0x00, 0x00, 0x16, 0xe8, 0xff, 0xff, 0xff,
  0x53, 0x00, 0x00, 0x00, 0x00, 0x00, 0x00, 0x53, 0xf4, 0xff, 0xff, 0xff,
  0x2d, 0x00, 0x00, 0x00, 0x00, 0x00, 0x00, 0x2d, 0x0c, 0x00, 0x0c, 0x00,
  0x0b, 0x00, 0x00, 0x00, 0x00, 0x00, 0x04, 0x00, 0x0c, 0x00, 0x00, 0x00,
  0x4d, 0x00, 0x00, 0x00, 0x00, 0x00, 0x00, 0x4d
};
unsigned int model_0320_1822_model_CNN_tflite_len = 6596;
