unsigned char model_0331_1411_model_CNN_tflite[] = {
  0x1c, 0x00, 0x00, 0x00, 0x54, 0x46, 0x4c, 0x33, 0x14, 0x00, 0x20, 0x00,
  0x1c, 0x00, 0x18, 0x00, 0x14, 0x00, 0x10, 0x00, 0x0c, 0x00, 0x00, 0x00,
  0x08, 0x00, 0x04, 0x00, 0x14, 0x00, 0x00, 0x00, 0x1c, 0x00, 0x00, 0x00,
  0x7c, 0x00, 0x00, 0x00, 0xd4, 0x00, 0x00, 0x00, 0xcc, 0x08, 0x00, 0x00,
  0xdc, 0x08, 0x00, 0x00, 0x80, 0x1d, 0x00, 0x00, 0x03, 0x00, 0x00, 0x00,
  0x01, 0x00, 0x00, 0x00, 0x04, 0x00, 0x00, 0x00, 0xa2, 0xf2, 0xff, 0xff,
  0x0c, 0x00, 0x00, 0x00, 0x1c, 0x00, 0x00, 0x00, 0x38, 0x00, 0x00, 0x00,
  0x0f, 0x00, 0x00, 0x00, 0x73, 0x65, 0x72, 0x76, 0x69, 0x6e, 0x67, 0x5f,
  0x64, 0x65, 0x66, 0x61, 0x75, 0x6c, 0x74, 0x00, 0x01, 0x00, 0x00, 0x00,
  0x04, 0x00, 0x00, 0x00, 0xa0, 0xff, 0xff, 0xff, 0x24, 0x00, 0x00, 0x00,
  0x04, 0x00, 0x00, 0x00, 0x05, 0x00, 0x00, 0x00, 0x64, 0x65, 0x6e, 0x73,
  0x65, 0x00, 0x00, 0x00, 0x01, 0x00, 0x00, 0x00, 0x04, 0x00, 0x00, 0x00,
  0x16, 0xf5, 0xff, 0xff, 0x04, 0x00, 0x00, 0x00, 0x03, 0x00, 0x00, 0x00,
  0x6d, 0x65, 0x6c, 0x00, 0x02, 0x00, 0x00, 0x00, 0x34, 0x00, 0x00, 0x00,
  0x04, 0x00, 0x00, 0x00, 0xdc, 0xff, 0xff, 0xff, 0x27, 0x00, 0x00, 0x00,
  0x04, 0x00, 0x00, 0x00, 0x13, 0x00, 0x00, 0x00, 0x43, 0x4f, 0x4e, 0x56,
  0x45, 0x52, 0x53, 0x49, 0x4f, 0x4e, 0x5f, 0x4d, 0x45, 0x54, 0x41, 0x44,
  0x41, 0x54, 0x41, 0x00, 0x08, 0x00, 0x0c, 0x00, 0x08, 0x00, 0x04, 0x00,
  0x08, 0x00, 0x00, 0x00, 0x26, 0x00, 0x00, 0x00, 0x04, 0x00, 0x00, 0x00,
  0x13, 0x00, 0x00, 0x00, 0x6d, 0x69, 0x6e, 0x5f, 0x72, 0x75, 0x6e, 0x74,
  0x69, 0x6d, 0x65, 0x5f, 0x76, 0x65, 0x72, 0x73, 0x69, 0x6f, 0x6e, 0x00,
  0x28, 0x00, 0x00, 0x00, 0xf4, 0x07, 0x00, 0x00, 0xec, 0x07, 0x00, 0x00,
  0xd0, 0x07, 0x00, 0x00, 0xb4, 0x07, 0x00, 0x00, 0x38, 0x07, 0x00, 0x00,
  0xe4, 0x05, 0x00, 0x00, 0x68, 0x05, 0x00, 0x00, 0xec, 0x04, 0x00, 0x00,
  0xd8, 0x04, 0x00, 0x00, 0xc4, 0x04, 0x00, 0x00, 0xb0, 0x04, 0x00, 0x00,
  0x9c, 0x04, 0x00, 0x00, 0x88, 0x04, 0x00, 0x00, 0x70, 0x04, 0x00, 0x00,
  0x5c, 0x04, 0x00, 0x00, 0x54, 0x04, 0x00, 0x00, 0x38, 0x01, 0x00, 0x00,
  0x30, 0x01, 0x00, 0x00, 0x28, 0x01, 0x00, 0x00, 0x20, 0x01, 0x00, 0x00,
  0x18, 0x01, 0x00, 0x00, 0x10, 0x01, 0x00, 0x00, 0x08, 0x01, 0x00, 0x00,
  0x00, 0x01, 0x00, 0x00, 0xf8, 0x00, 0x00, 0x00, 0xf0, 0x00, 0x00, 0x00,
  0xe8, 0x00, 0x00, 0x00, 0xe0, 0x00, 0x00, 0x00, 0xd8, 0x00, 0x00, 0x00,
  0xd0, 0x00, 0x00, 0x00, 0xc8, 0x00, 0x00, 0x00, 0xc0, 0x00, 0x00, 0x00,
  0xb8, 0x00, 0x00, 0x00, 0xb0, 0x00, 0x00, 0x00, 0xa8, 0x00, 0x00, 0x00,
  0xa0, 0x00, 0x00, 0x00, 0x98, 0x00, 0x00, 0x00, 0x90, 0x00, 0x00, 0x00,
  0x70, 0x00, 0x00, 0x00, 0x04, 0x00, 0x00, 0x00, 0x26, 0xf6, 0xff, 0xff,
  0x04, 0x00, 0x00, 0x00, 0x5c, 0x00, 0x00, 0x00, 0x0c, 0x00, 0x00, 0x00,
  0x08, 0x00, 0x0e, 0x00, 0x08, 0x00, 0x04, 0x00, 0x08, 0x00, 0x00, 0x00,
  0x14, 0x00, 0x00, 0x00, 0x2c, 0x00, 0x00, 0x00, 0x00, 0x00, 0x0a, 0x00,
  0x0c, 0x00, 0x08, 0x00, 0x00, 0x00, 0x07, 0x00, 0x0a, 0x00, 0x00, 0x00,
  0x00, 0x00, 0x00, 0x01, 0x04, 0x00, 0x00, 0x00, 0x00, 0x00, 0x00, 0x00,
  0x00, 0x00, 0x0a, 0x00, 0x10, 0x00, 0x0c, 0x00, 0x08, 0x00, 0x04, 0x00,
  0x0a, 0x00, 0x00, 0x00, 0x02, 0x00, 0x00, 0x00, 0x02, 0x00, 0x00, 0x00,
  0x04, 0x00, 0x00, 0x00, 0x06, 0x00, 0x00, 0x00, 0x32, 0x2e, 0x31, 0x33,
  0x2e, 0x31, 0x00, 0x00, 0x8e, 0xf6, 0xff, 0xff, 0x04, 0x00, 0x00, 0x00,
  0x10, 0x00, 0x00, 0x00, 0x31, 0x2e, 0x31, 0x34, 0x2e, 0x30, 0x00, 0x00,
  0x00, 0x00, 0x00, 0x00, 0x00, 0x00, 0x00, 0x00, 0xb0, 0xe3, 0xff, 0xff,
  0xb4, 0xe3, 0xff, 0xff, 0xb8, 0xe3, 0xff, 0xff, 0xbc, 0xe3, 0xff, 0xff,
  0xc0, 0xe3, 0xff, 0xff, 0xc4, 0xe3, 0xff, 0xff, 0xc8, 0xe3, 0xff, 0xff,
  0xcc, 0xe3, 0xff, 0xff, 0xd0, 0xe3, 0xff, 0xff, 0xd4, 0xe3, 0xff, 0xff,
  0xd8, 0xe3, 0xff, 0xff, 0xdc, 0xe3, 0xff, 0xff, 0xe0, 0xe3, 0xff, 0xff,
  0xe4, 0xe3, 0xff, 0xff, 0xe8, 0xe3, 0xff, 0xff, 0xec, 0xe3, 0xff, 0xff,
  0xf0, 0xe3, 0xff, 0xff, 0xf4, 0xe3, 0xff, 0xff, 0xf8, 0xe3, 0xff, 0xff,
  0xfc, 0xe3, 0xff, 0xff, 0x00, 0xe4, 0xff, 0xff, 0xfe, 0xf6, 0xff, 0xff,
  0x04, 0x00, 0x00, 0x00, 0x0c, 0x03, 0x00, 0x00, 0xb6, 0xfc, 0x34, 0x3e,
  0x42, 0x88, 0x14, 0x3e, 0xa1, 0x13, 0x21, 0xbd, 0x0c, 0x58, 0x3b, 0x3e,
  0xd5, 0x7d, 0x20, 0xbe, 0x10, 0x56, 0x0b, 0xbe, 0xd7, 0x5d, 0x3f, 0x3e,
  0x53, 0xfa, 0x20, 0xbe, 0x1b, 0xc7, 0x42, 0xbe, 0xaa, 0xeb, 0xc5, 0x3b,
  0x67, 0x47, 0x77, 0xbc, 0x52, 0x53, 0x2c, 0xbe, 0xbd, 0x30, 0x63, 0x3d,
  0x14, 0x01, 0x36, 0xbe, 0xdb, 0x06, 0xca, 0xbd, 0x1c, 0xb7, 0x95, 0xbc,
  0x9f, 0x3b, 0xf1, 0x3d, 0x52, 0xf6, 0x0d, 0xbe, 0x51, 0x05, 0x07, 0x3e,
  0x93, 0xf0, 0xf2, 0xbd, 0xf3, 0xf2, 0xbf, 0xbd, 0x27, 0xba, 0x07, 0x3e,
  0xb1, 0x6f, 0x0e, 0xbe, 0xfd, 0x2c, 0x25, 0xbe, 0x48, 0x7f, 0x8f, 0xbd,
  0xa1, 0xaa, 0x49, 0xbd, 0xb2, 0x72, 0x2b, 0xbe, 0xe8, 0x7d, 0x39, 0x3d,
  0x66, 0x9e, 0x3b, 0x3e, 0x0f, 0x25, 0xef, 0xbd, 0x94, 0xc7, 0x1c, 0x3e,
  0xea, 0x8f, 0xfb, 0x3d, 0x6b, 0x12, 0xa3, 0x3d, 0x4b, 0x59, 0x20, 0x3d,
  0x24, 0xc9, 0xfd, 0x3d, 0x63, 0x9b, 0x4d, 0x3d, 0x5a, 0xb7, 0x5e, 0x3e,
  0x9e, 0xaf, 0x20, 0x3e, 0x27, 0xec, 0x2d, 0xbe, 0xec, 0xc7, 0x12, 0x3e,
  0x98, 0x1f, 0x84, 0xbd, 0xb4, 0xf8, 0x63, 0xbe, 0x4e, 0xb0, 0x5f, 0x3e,
  0x80, 0x24, 0xb5, 0xbd, 0xd0, 0xa9, 0x36, 0xbd, 0x26, 0x17, 0xeb, 0xbc,
  0xc1, 0xed, 0x3b, 0xbe, 0x2f, 0x15, 0x25, 0xbd, 0xb1, 0x7b, 0x6d, 0xbc,
  0x79, 0x1d, 0x98, 0xbd, 0x8d, 0x62, 0x14, 0xbe, 0x19, 0x56, 0x89, 0xbc,
  0x2c, 0xa3, 0x1f, 0xbe, 0x75, 0x7a, 0x15, 0x3d, 0x03, 0x94, 0x6d, 0x3d,
  0x7a, 0xf1, 0xdc, 0xbd, 0xb1, 0x38, 0x0c, 0xbe, 0xc7, 0xc9, 0x19, 0x3e,
  0xfc, 0x34, 0xb0, 0x3c, 0x21, 0xbb, 0x92, 0xbd, 0xd2, 0x05, 0x67, 0x3d,
  0x32, 0x32, 0x6c, 0xbd, 0x56, 0xff, 0x50, 0xbe, 0x03, 0x76, 0x49, 0x3e,
  0x2c, 0x1a, 0x2e, 0xbe, 0x6e, 0x41, 0x7c, 0xbe, 0x1e, 0x1a, 0x9b, 0x3a,
  0x83, 0xc0, 0xe7, 0x3c, 0xd4, 0x19, 0x5d, 0xbe, 0xe8, 0xa2, 0xa1, 0x3a,
  0xd7, 0xea, 0x09, 0xbe, 0x70, 0xb8, 0xc0, 0xbd, 0x99, 0xf1, 0x30, 0x3e,
  0x8d, 0xe3, 0xf5, 0xbc, 0xc4, 0xf1, 0x66, 0xbd, 0x92, 0x4a, 0x21, 0xbd,
  0xdb, 0xba, 0x14, 0x3e, 0x9b, 0x64, 0x41, 0xbe, 0xb3, 0xfd, 0xc6, 0xbc,
  0xf9, 0xb5, 0xf9, 0x3d, 0x54, 0x59, 0x8a, 0xbd, 0xd0, 0x9f, 0xf9, 0x3d,
  0x76, 0xf6, 0xb6, 0xbd, 0xb7, 0xf9, 0x08, 0xbe, 0xfe, 0xc7, 0x45, 0x3d,
  0x28, 0xa8, 0x3e, 0xbe, 0xdb, 0x88, 0x84, 0x3c, 0xe4, 0x8c, 0x02, 0x3e,
  0x79, 0x3a, 0xbe, 0xbb, 0x16, 0xbe, 0xb3, 0xbb, 0x25, 0xb2, 0xb0, 0xbd,
  0xab, 0xad, 0x9a, 0xbd, 0x4d, 0xba, 0x6f, 0xbe, 0xde, 0xe6, 0x05, 0x3e,
  0xa3, 0xe8, 0x89, 0x3d, 0xb8, 0xdc, 0x5b, 0xbe, 0x81, 0x03, 0xf7, 0x3d,
  0xd9, 0xd9, 0x3a, 0xbd, 0x42, 0xdc, 0x84, 0xbe, 0x2c, 0x9c, 0xc4, 0x3d,
  0xdb, 0xef, 0x23, 0xbe, 0x9e, 0xca, 0x0f, 0xbe, 0x60, 0xb7, 0xe7, 0x3d,
  0x9a, 0xeb, 0xf2, 0xbd, 0x79, 0x59, 0x52, 0xbe, 0x1a, 0xbf, 0x4e, 0x3e,
  0xab, 0x12, 0xee, 0x3d, 0x35, 0xe0, 0x1f, 0xbe, 0x09, 0x5d, 0x63, 0x3e,
  0xcf, 0xa5, 0xb6, 0xbd, 0x64, 0xf2, 0x20, 0xbe, 0xb7, 0x45, 0x80, 0x3d,
  0x7b, 0xff, 0xd0, 0x3d, 0x97, 0x3a, 0x23, 0xbe, 0x3f, 0x23, 0x29, 0x3e,
  0x44, 0xab, 0xfd, 0xbc, 0x23, 0x1a, 0x79, 0xbd, 0xfa, 0xa8, 0x38, 0xbd,
  0x61, 0xe6, 0x7e, 0x3d, 0x55, 0x6a, 0x01, 0xbe, 0x0d, 0x0a, 0x37, 0xbd,
  0x3a, 0x37, 0x6a, 0xbe, 0x1a, 0x9f, 0x19, 0xbe, 0x40, 0x75, 0x3e, 0x3e,
  0x51, 0x16, 0x47, 0xbe, 0x85, 0x5a, 0x49, 0xbe, 0xf7, 0x5e, 0x4b, 0x3e,
  0xe3, 0xe1, 0x51, 0xbe, 0xe9, 0x75, 0xbf, 0xbd, 0x58, 0x48, 0x1d, 0x3e,
  0xf8, 0xa2, 0xc3, 0xbd, 0x63, 0xe3, 0x88, 0xbc, 0x38, 0xbf, 0x0a, 0x3d,
  0x7e, 0x87, 0x31, 0xbe, 0x88, 0x9c, 0x92, 0x3d, 0xb1, 0x61, 0x89, 0x3d,
  0x7e, 0x0e, 0x2b, 0xbe, 0x4a, 0x27, 0x70, 0xbe, 0x79, 0x31, 0x11, 0x3e,
  0x61, 0x40, 0x7c, 0xbd, 0xd6, 0xd1, 0x18, 0xbe, 0xe5, 0x66, 0xf9, 0x3d,
  0x1c, 0x94, 0xcb, 0xbd, 0x76, 0xf8, 0x80, 0xbd, 0x51, 0xc5, 0x58, 0x3e,
  0x02, 0x6f, 0xb1, 0xbd, 0x5b, 0x00, 0x79, 0x3d, 0x5e, 0x35, 0x05, 0x3c,
  0x11, 0xb0, 0xa7, 0x3d, 0x7a, 0xc2, 0x81, 0x3a, 0xae, 0xc2, 0x38, 0x3e,
  0x9f, 0xcc, 0x05, 0xbc, 0x8f, 0x35, 0x72, 0x3c, 0xd5, 0x22, 0x04, 0x3e,
  0x64, 0xe6, 0xe7, 0xbd, 0xfb, 0xac, 0xf8, 0xbd, 0xbe, 0x05, 0x92, 0x3e,
  0x77, 0x8b, 0x8a, 0xbe, 0x06, 0xb7, 0x46, 0xbe, 0x1d, 0x30, 0x9b, 0xbc,
  0x4b, 0x03, 0xa2, 0xbc, 0x28, 0x11, 0x17, 0xbe, 0xff, 0x4c, 0x1a, 0x3e,
  0xe5, 0x9c, 0xfb, 0xbb, 0xae, 0x9b, 0x16, 0x3d, 0x36, 0x10, 0xfe, 0xbb,
  0x6f, 0x0f, 0xee, 0xbd, 0xee, 0xdb, 0x54, 0xbe, 0x17, 0xb3, 0x4b, 0x3e,
  0x9b, 0x2b, 0x55, 0xbe, 0xb9, 0xda, 0x65, 0xbd, 0xaf, 0x66, 0x1d, 0x3b,
  0x70, 0x9c, 0x0b, 0xbe, 0x82, 0x9b, 0xd6, 0xbd, 0xcc, 0x11, 0xed, 0x3c,
  0x9d, 0x5c, 0x41, 0x3c, 0x3a, 0xf6, 0x22, 0xbe, 0x82, 0xf6, 0xc6, 0x3d,
  0x63, 0xdf, 0x7c, 0xbe, 0x17, 0x99, 0x57, 0x3c, 0x35, 0x93, 0xd9, 0x3d,
  0x6b, 0x0e, 0x50, 0xbe, 0x05, 0x96, 0xef, 0xbd, 0x13, 0x71, 0xac, 0xbc,
  0x9f, 0x52, 0x06, 0xbe, 0x18, 0xdc, 0x88, 0xbe, 0x1c, 0x24, 0xeb, 0x3d,
  0x2b, 0x37, 0xbe, 0xbc, 0xa0, 0x69, 0x1e, 0xbd, 0x68, 0xce, 0x02, 0x3c,
  0x45, 0x50, 0x31, 0xbd, 0xec, 0x01, 0x9b, 0xbc, 0x72, 0x73, 0x5a, 0x3e,
  0xc5, 0x4c, 0xfa, 0xbd, 0x96, 0x3e, 0x86, 0xbd, 0x1c, 0xe7, 0xff, 0xff,
  0x1a, 0xfa, 0xff, 0xff, 0x04, 0x00, 0x00, 0x00, 0x04, 0x00, 0x00, 0x00,
  0x6f, 0x12, 0x83, 0x3a, 0x2a, 0xfa, 0xff, 0xff, 0x04, 0x00, 0x00, 0x00,
  0x08, 0x00, 0x00, 0x00, 0xff, 0xff, 0xff, 0xff, 0xc3, 0x00, 0x00, 0x00,
  0x3e, 0xfa, 0xff, 0xff, 0x04, 0x00, 0x00, 0x00, 0x04, 0x00, 0x00, 0x00,
  0x1b, 0x00, 0x00, 0x00, 0x4e, 0xfa, 0xff, 0xff, 0x04, 0x00, 0x00, 0x00,
  0x04, 0x00, 0x00, 0x00, 0x3c, 0x00, 0x00, 0x00, 0x5e, 0xfa, 0xff, 0xff,
  0x04, 0x00, 0x00, 0x00, 0x04, 0x00, 0x00, 0x00, 0x01, 0x00, 0x00, 0x00,
  0x6e, 0xfa, 0xff, 0xff, 0x04, 0x00, 0x00, 0x00, 0x04, 0x00, 0x00, 0x00,
  0x00, 0x00, 0x00, 0x00, 0x7e, 0xfa, 0xff, 0xff, 0x04, 0x00, 0x00, 0x00,
  0x04, 0x00, 0x00, 0x00, 0x49, 0xf1, 0x88, 0xbd, 0x8e, 0xfa, 0xff, 0xff,
  0x04, 0x00, 0x00, 0x00, 0x6c, 0x00, 0x00, 0x00, 0xf6, 0xbc, 0xe7, 0xbd,
  0xc1, 0x1c, 0x90, 0xbd, 0x7e, 0x34, 0xb8, 0xbd, 0xce, 0x02, 0xea, 0x3c,
  0xea, 0x12, 0xb4, 0xbd, 0x5a, 0xef, 0xce, 0x3b, 0x13, 0x3c, 0x8b, 0xbb,
  0x89, 0x43, 0x1f, 0xbe, 0x0e, 0xe1, 0xb1, 0xbd, 0xe6, 0xc1, 0xb0, 0x3c,
  0x8d, 0xa2, 0xf0, 0x3d, 0x6a, 0x5f, 0x3b, 0xbe, 0x78, 0x84, 0x44, 0xbd,
  0xb8, 0x11, 0x83, 0xbd, 0xfe, 0xb3, 0xb5, 0xbc, 0xde, 0xf1, 0x0f, 0xbe,
  0x01, 0xd0, 0xa9, 0xbd, 0xee, 0x07, 0xe3, 0xbd, 0x23, 0x49, 0x37, 0xbc,
  0xe3, 0x20, 0x98, 0xbd, 0x4c, 0x64, 0x6f, 0x3d, 0x0d, 0xb6, 0xb3, 0x3c,
  0xf4, 0x56, 0xb1, 0x3d, 0x9a, 0x34, 0xb2, 0x3b, 0x66, 0xad, 0x2b, 0xbd,
  0x28, 0x01, 0x0c, 0xbe, 0x00, 0x00, 0x00, 0x00, 0x06, 0xfb, 0xff, 0xff,
  0x04, 0x00, 0x00, 0x00, 0x6c, 0x00, 0x00, 0x00, 0x5e, 0x3d, 0x92, 0x3f,
  0x72, 0x38, 0x90, 0x3f, 0x99, 0xbc, 0x89, 0x3f, 0x1a, 0xa3, 0x7b, 0x3f,
  0x1c, 0xb5, 0x90, 0x3f, 0x6e, 0xb1, 0x70, 0x3f, 0xe1, 0x46, 0x93, 0x3f,
  0x0d, 0xc5, 0x55, 0x3f, 0x77, 0xca, 0x6e, 0x3f, 0x6f, 0x1d, 0x8a, 0x3f,
  0xc7, 0xff, 0xa8, 0x3f, 0xca, 0x86, 0x4d, 0x3f, 0x52, 0x49, 0x84, 0x3f,
  0x62, 0x4e, 0x92, 0x3f, 0x77, 0xd5, 0x81, 0x3f, 0x45, 0x84, 0x55, 0x3f,
  0xa0, 0x08, 0x87, 0x3f, 0x9a, 0x92, 0x66, 0x3f, 0xd3, 0xaf, 0x89, 0x3f,
  0x7a, 0x49, 0x81, 0x3f, 0xd0, 0x0e, 0x9c, 0x3f, 0x2b, 0x10, 0x90, 0x3f,
  0xe3, 0x99, 0x94, 0x3f, 0x77, 0x79, 0x8e, 0x3f, 0x3c, 0xe6, 0x92, 0x3f,
  0x1c, 0x11, 0x35, 0x3f, 0x00, 0x00, 0x80, 0x3f, 0x7e, 0xfb, 0xff, 0xff,
  0x04, 0x00, 0x00, 0x00, 0x44, 0x01, 0x00, 0x00, 0xe2, 0x85, 0x81, 0x3e,
  0x8e, 0x43, 0x10, 0xbe, 0x12, 0x8d, 0x6c, 0x3e, 0xa0, 0x5b, 0x97, 0x3e,
  0xb5, 0xdb, 0x96, 0xbe, 0x44, 0x2d, 0xad, 0x3e, 0x2d, 0x6e, 0xb5, 0x3d,
  0xd8, 0xd4, 0xc7, 0xbe, 0xde, 0xb3, 0x7e, 0x3e, 0xf4, 0xed, 0x88, 0xbd,
  0xa6, 0x96, 0xb8, 0xbe, 0x22, 0x78, 0x45, 0x3e, 0xd2, 0xaf, 0x95, 0xbe,
  0xc6, 0xd7, 0x37, 0xbe, 0x8b, 0xdc, 0xd6, 0xbd, 0xe8, 0x9d, 0x54, 0xbd,
  0xc2, 0x66, 0x21, 0xbd, 0x35, 0x5b, 0xed, 0xbd, 0x14, 0xc8, 0xae, 0x3e,
  0xdb, 0x09, 0xd9, 0x3d, 0x07, 0xa8, 0x67, 0x3e, 0xb8, 0x3e, 0xab, 0x3e,
  0x7f, 0xbf, 0x06, 0xbe, 0x37, 0xaf, 0xd3, 0x38, 0xf8, 0x98, 0x3c, 0x3e,
  0xe8, 0xb1, 0xcc, 0xbe, 0x58, 0xf0, 0xcd, 0x3e, 0x7a, 0x72, 0x79, 0x3e,
  0xe7, 0xae, 0x1b, 0x3d, 0xe0, 0x57, 0xfc, 0x3c, 0x47, 0x86, 0xcc, 0x3e,
  0xc4, 0x6a, 0x8a, 0xbe, 0xb2, 0x88, 0xec, 0x3c, 0x4d, 0x16, 0xbb, 0x3d,
  0xac, 0x54, 0x91, 0x3e, 0x43, 0xac, 0x29, 0xbe, 0x8b, 0xd9, 0x57, 0xbe,
  0x93, 0x91, 0x43, 0xbe, 0xee, 0xf1, 0x1f, 0x3e, 0xd2, 0xa8, 0x0d, 0xbe,
  0x13, 0x1e, 0x72, 0xbe, 0x41, 0x4a, 0x18, 0x3d, 0x9e, 0x08, 0x9e, 0x3e,
  0x2c, 0xfa, 0xa2, 0x3e, 0x60, 0x10, 0x7e, 0x3d, 0xc3, 0x42, 0x62, 0x3e,
  0x8e, 0x24, 0xf9, 0x3d, 0x9d, 0x4a, 0xaf, 0xbe, 0x30, 0xe3, 0x8d, 0x3e,
  0xac, 0xda, 0xb8, 0xbe, 0x6a, 0x71, 0x80, 0xbd, 0x3e, 0xfb, 0x53, 0x3d,
  0x00, 0x92, 0x9c, 0xbe, 0x85, 0xce, 0x95, 0xbd, 0xef, 0xe7, 0x89, 0xbe,
  0xfe, 0xf9, 0x13, 0xbe, 0x14, 0xd4, 0x9b, 0x3d, 0x87, 0x54, 0xa8, 0x3e,
  0x13, 0x18, 0x97, 0x3d, 0xc9, 0x26, 0x3d, 0xbe, 0x5f, 0xe4, 0x46, 0xba,
  0xd0, 0xa6, 0x84, 0xbe, 0xb9, 0x63, 0x53, 0x3d, 0xa8, 0x42, 0xb7, 0x3e,
  0xd8, 0xba, 0x31, 0x3e, 0x51, 0x76, 0x35, 0xbe, 0xe4, 0xdc, 0xbc, 0x3e,
  0x9e, 0xca, 0x84, 0x3d, 0x8f, 0x4b, 0x32, 0xbe, 0xe7, 0xf2, 0xb1, 0x3d,
  0x8e, 0xde, 0xbc, 0xbe, 0x71, 0x07, 0x66, 0xbe, 0x79, 0xeb, 0x9c, 0x3e,
  0x74, 0xe5, 0x81, 0x3e, 0x10, 0x26, 0x16, 0xbd, 0xe5, 0xfb, 0x39, 0x3e,
  0xf2, 0x71, 0x22, 0x3e, 0xfb, 0x75, 0x1b, 0x3d, 0x70, 0x02, 0x87, 0x3e,
  0x8b, 0x0a, 0x8c, 0x3e, 0xb1, 0x3a, 0x9f, 0xbe, 0xce, 0xfc, 0xff, 0xff,
  0x04, 0x00, 0x00, 0x00, 0x6c, 0x00, 0x00, 0x00, 0x33, 0x34, 0x40, 0x3d,
  0x5c, 0x55, 0xa2, 0x3e, 0xf9, 0x65, 0xde, 0x3e, 0x0c, 0xfa, 0xa4, 0xbe,
  0xac, 0x43, 0xb4, 0x3e, 0xde, 0x99, 0x10, 0xbe, 0xb1, 0x19, 0x13, 0x3e,
  0xe5, 0x54, 0xa2, 0x3e, 0xf4, 0xa7, 0xa6, 0xbe, 0x75, 0xea, 0x3f, 0xbe,
  0x07, 0x5a, 0x46, 0x3e, 0x68, 0xaa, 0x0a, 0xbe, 0xd3, 0x2e, 0xfd, 0xbc,
  0x28, 0xdb, 0x97, 0x3e, 0x0a, 0x8e, 0x30, 0xbe, 0x98, 0xa3, 0xba, 0xbe,
  0xfa, 0x34, 0x93, 0x3d, 0x75, 0xc9, 0x6d, 0xbe, 0xe4, 0x9d, 0xc3, 0x3e,
  0x91, 0x78, 0x59, 0x3e, 0x5e, 0xdd, 0x87, 0x3e, 0xe2, 0x84, 0xa7, 0xbd,
  0x5a, 0x12, 0x7f, 0xbd, 0x50, 0xc9, 0x47, 0x3e, 0x03, 0x72, 0xa1, 0xbe,
  0xbd, 0x4e, 0x62, 0xbe, 0x78, 0x7e, 0xa3, 0xbd, 0x46, 0xfd, 0xff, 0xff,
  0x04, 0x00, 0x00, 0x00, 0x0c, 0x00, 0x00, 0x00, 0xf7, 0x9a, 0xf0, 0xbd,
  0x92, 0x42, 0xf7, 0x3d, 0x3a, 0x7e, 0xb7, 0x3d, 0x5e, 0xfd, 0xff, 0xff,
  0x04, 0x00, 0x00, 0x00, 0x0c, 0x00, 0x00, 0x00, 0xc8, 0x34, 0x09, 0x3e,
  0x84, 0x10, 0xef, 0x3d, 0x8c, 0xd6, 0x57, 0xbe, 0x7c, 0xea, 0xff, 0xff,
  0x80, 0xea, 0xff, 0xff, 0x0f, 0x00, 0x00, 0x00, 0x4d, 0x4c, 0x49, 0x52,
  0x20, 0x43, 0x6f, 0x6e, 0x76, 0x65, 0x72, 0x74, 0x65, 0x64, 0x2e, 0x00,
  0x01, 0x00, 0x00, 0x00, 0x14, 0x00, 0x00, 0x00, 0x00, 0x00, 0x0e, 0x00,
  0x18, 0x00, 0x14, 0x00, 0x10, 0x00, 0x0c, 0x00, 0x08, 0x00, 0x04, 0x00,
  0x0e, 0x00, 0x00, 0x00, 0x14, 0x00, 0x00, 0x00, 0x1c, 0x00, 0x00, 0x00,
  0xe8, 0x04, 0x00, 0x00, 0xec, 0x04, 0x00, 0x00, 0xf0, 0x04, 0x00, 0x00,
  0x04, 0x00, 0x00, 0x00, 0x6d, 0x61, 0x69, 0x6e, 0x00, 0x00, 0x00, 0x00,
  0x15, 0x00, 0x00, 0x00, 0x94, 0x04, 0x00, 0x00, 0x5c, 0x04, 0x00, 0x00,
  0x1c, 0x04, 0x00, 0x00, 0xe8, 0x03, 0x00, 0x00, 0xb4, 0x03, 0x00, 0x00,
  0x80, 0x03, 0x00, 0x00, 0x4c, 0x03, 0x00, 0x00, 0x18, 0x03, 0x00, 0x00,
  0xe4, 0x02, 0x00, 0x00, 0xb0, 0x02, 0x00, 0x00, 0x7c, 0x02, 0x00, 0x00,
  0x2c, 0x02, 0x00, 0x00, 0xe4, 0x01, 0x00, 0x00, 0xbc, 0x01, 0x00, 0x00,
  0x68, 0x01, 0x00, 0x00, 0x14, 0x01, 0x00, 0x00, 0xcc, 0x00, 0x00, 0x00,
  0x88, 0x00, 0x00, 0x00, 0x60, 0x00, 0x00, 0x00, 0x28, 0x00, 0x00, 0x00,
  0x04, 0x00, 0x00, 0x00, 0xfe, 0xfb, 0xff, 0xff, 0x0c, 0x00, 0x00, 0x00,
  0x10, 0x00, 0x00, 0x00, 0x0d, 0x00, 0x00, 0x00, 0x01, 0x00, 0x00, 0x00,
  0x24, 0x00, 0x00, 0x00, 0x01, 0x00, 0x00, 0x00, 0x23, 0x00, 0x00, 0x00,
  0x8e, 0xfc, 0xff, 0xff, 0x14, 0x00, 0x00, 0x00, 0x00, 0x00, 0x00, 0x08,
  0x10, 0x00, 0x00, 0x00, 0x14, 0x00, 0x00, 0x00, 0x0c, 0x00, 0x00, 0x00,
  0x64, 0xeb, 0xff, 0xff, 0x01, 0x00, 0x00, 0x00, 0x23, 0x00, 0x00, 0x00,
  0x03, 0x00, 0x00, 0x00, 0x22, 0x00, 0x00, 0x00, 0x0f, 0x00, 0x00, 0x00,
  0x07, 0x00, 0x00, 0x00, 0x52, 0xfc, 0xff, 0xff, 0x0c, 0x00, 0x00, 0x00,
  0x10, 0x00, 0x00, 0x00, 0x09, 0x00, 0x00, 0x00, 0x01, 0x00, 0x00, 0x00,
  0x22, 0x00, 0x00, 0x00, 0x02, 0x00, 0x00, 0x00, 0x21, 0x00, 0x00, 0x00,
  0x0c, 0x00, 0x00, 0x00, 0xe6, 0xfc, 0xff, 0xff, 0x14, 0x00, 0x00, 0x00,
  0x00, 0x00, 0x00, 0x05, 0x24, 0x00, 0x00, 0x00, 0x28, 0x00, 0x00, 0x00,
  0x0b, 0x00, 0x00, 0x00, 0x7a, 0xff, 0xff, 0xff, 0x02, 0x00, 0x00, 0x00,
  0x02, 0x00, 0x00, 0x00, 0x02, 0x00, 0x00, 0x00, 0x02, 0x00, 0x00, 0x00,
  0x00, 0x00, 0x00, 0x01, 0x01, 0x00, 0x00, 0x00, 0x21, 0x00, 0x00, 0x00,
  0x01, 0x00, 0x00, 0x00, 0x20, 0x00, 0x00, 0x00, 0x26, 0xfd, 0xff, 0xff,
  0x14, 0x00, 0x00, 0x00, 0x00, 0x00, 0x00, 0x01, 0x20, 0x00, 0x00, 0x00,
  0x24, 0x00, 0x00, 0x00, 0x0a, 0x00, 0x00, 0x00, 0x6c, 0xff, 0xff, 0xff,
  0x00, 0x00, 0x00, 0x01, 0x01, 0x00, 0x00, 0x00, 0x01, 0x00, 0x00, 0x00,
  0x00, 0x00, 0x00, 0x01, 0x01, 0x00, 0x00, 0x00, 0x20, 0x00, 0x00, 0x00,
  0x03, 0x00, 0x00, 0x00, 0x1f, 0x00, 0x00, 0x00, 0x04, 0x00, 0x00, 0x00,
  0x02, 0x00, 0x00, 0x00, 0x6a, 0xfd, 0xff, 0xff, 0x24, 0x00, 0x00, 0x00,
  0x00, 0x00, 0x00, 0x05, 0x34, 0x00, 0x00, 0x00, 0x38, 0x00, 0x00, 0x00,
  0x0b, 0x00, 0x00, 0x00, 0x00, 0x00, 0x0e, 0x00, 0x18, 0x00, 0x17, 0x00,
  0x10, 0x00, 0x0c, 0x00, 0x08, 0x00, 0x04, 0x00, 0x0e, 0x00, 0x00, 0x00,
  0x02, 0x00, 0x00, 0x00, 0x02, 0x00, 0x00, 0x00, 0x02, 0x00, 0x00, 0x00,
  0x02, 0x00, 0x00, 0x00, 0x00, 0x00, 0x00, 0x01, 0x01, 0x00, 0x00, 0x00,
  0x1f, 0x00, 0x00, 0x00, 0x01, 0x00, 0x00, 0x00, 0x1e, 0x00, 0x00, 0x00,
  0xba, 0xfd, 0xff, 0xff, 0x20, 0x00, 0x00, 0x00, 0x00, 0x00, 0x00, 0x01,
  0x2c, 0x00, 0x00, 0x00, 0x30, 0x00, 0x00, 0x00, 0x0a, 0x00, 0x00, 0x00,
  0x0c, 0x00, 0x14, 0x00, 0x13, 0x00, 0x0c, 0x00, 0x08, 0x00, 0x07, 0x00,
  0x0c, 0x00, 0x00, 0x00, 0x00, 0x00, 0x00, 0x01, 0x01, 0x00, 0x00, 0x00,
  0x01, 0x00, 0x00, 0x00, 0x00, 0x00, 0x00, 0x01, 0x01, 0x00, 0x00, 0x00,
  0x1e, 0x00, 0x00, 0x00, 0x03, 0x00, 0x00, 0x00, 0x1d, 0x00, 0x00, 0x00,
  0x03, 0x00, 0x00, 0x00, 0x01, 0x00, 0x00, 0x00, 0x9a, 0xfd, 0xff, 0xff,
  0x0c, 0x00, 0x00, 0x00, 0x10, 0x00, 0x00, 0x00, 0x09, 0x00, 0x00, 0x00,
  0x01, 0x00, 0x00, 0x00, 0x1d, 0x00, 0x00, 0x00, 0x02, 0x00, 0x00, 0x00,
  0x19, 0x00, 0x00, 0x00, 0x1c, 0x00, 0x00, 0x00, 0x2e, 0xfe, 0xff, 0xff,
  0x1c, 0x00, 0x00, 0x00, 0x00, 0x00, 0x00, 0x3b, 0x1c, 0x00, 0x00, 0x00,
  0x20, 0x00, 0x00, 0x00, 0x08, 0x00, 0x00, 0x00, 0x00, 0x00, 0x06, 0x00,
  0x08, 0x00, 0x04, 0x00, 0x06, 0x00, 0x00, 0x00, 0x04, 0x00, 0x00, 0x00,
  0x01, 0x00, 0x00, 0x00, 0x1c, 0x00, 0x00, 0x00, 0x04, 0x00, 0x00, 0x00,
  0x1b, 0x00, 0x00, 0x00, 0x0b, 0x00, 0x00, 0x00, 0x0a, 0x00, 0x00, 0x00,
  0x09, 0x00, 0x00, 0x00, 0x72, 0xfe, 0xff, 0xff, 0x24, 0x00, 0x00, 0x00,
  0x00, 0x00, 0x00, 0x20, 0x24, 0x00, 0x00, 0x00, 0x28, 0x00, 0x00, 0x00,
  0x07, 0x00, 0x00, 0x00, 0x00, 0x00, 0x0e, 0x00, 0x08, 0x00, 0x00, 0x00,
  0x00, 0x00, 0x00, 0x00, 0x00, 0x00, 0x04, 0x00, 0x0e, 0x00, 0x00, 0x00,
  0x01, 0x00, 0x00, 0x00, 0x01, 0x00, 0x00, 0x00, 0x1b, 0x00, 0x00, 0x00,
  0x04, 0x00, 0x00, 0x00, 0x1a, 0x00, 0x00, 0x00, 0x08, 0x00, 0x00, 0x00,
  0x0e, 0x00, 0x00, 0x00, 0x0e, 0x00, 0x00, 0x00, 0xbe, 0xfe, 0xff, 0xff,
  0x14, 0x00, 0x00, 0x00, 0x00, 0x00, 0x00, 0x37, 0x14, 0x00, 0x00, 0x00,
  0x18, 0x00, 0x00, 0x00, 0x06, 0x00, 0x00, 0x00, 0x12, 0xfe, 0xff, 0xff,
  0x00, 0x00, 0x00, 0x02, 0x01, 0x00, 0x00, 0x00, 0x1a, 0x00, 0x00, 0x00,
  0x01, 0x00, 0x00, 0x00, 0x19, 0x00, 0x00, 0x00, 0xee, 0xfe, 0xff, 0xff,
  0x14, 0x00, 0x00, 0x00, 0x00, 0x00, 0x00, 0x0b, 0x10, 0x00, 0x00, 0x00,
  0x14, 0x00, 0x00, 0x00, 0x02, 0x00, 0x00, 0x00, 0xc4, 0xed, 0xff, 0xff,
  0x01, 0x00, 0x00, 0x00, 0x19, 0x00, 0x00, 0x00, 0x02, 0x00, 0x00, 0x00,
  0x16, 0x00, 0x00, 0x00, 0x18, 0x00, 0x00, 0x00, 0x1e, 0xff, 0xff, 0xff,
  0x14, 0x00, 0x00, 0x00, 0x00, 0x00, 0x00, 0x1c, 0x10, 0x00, 0x00, 0x00,
  0x14, 0x00, 0x00, 0x00, 0x05, 0x00, 0x00, 0x00, 0xf4, 0xed, 0xff, 0xff,
  0x01, 0x00, 0x00, 0x00, 0x18, 0x00, 0x00, 0x00, 0x02, 0x00, 0x00, 0x00,
  0x06, 0x00, 0x00, 0x00, 0x17, 0x00, 0x00, 0x00, 0x4e, 0xff, 0xff, 0xff,
  0x14, 0x00, 0x00, 0x00, 0x00, 0x00, 0x00, 0x15, 0x10, 0x00, 0x00, 0x00,
  0x14, 0x00, 0x00, 0x00, 0x04, 0x00, 0x00, 0x00, 0x24, 0xee, 0xff, 0xff,
  0x01, 0x00, 0x00, 0x00, 0x17, 0x00, 0x00, 0x00, 0x02, 0x00, 0x00, 0x00,
  0x10, 0x00, 0x00, 0x00, 0x15, 0x00, 0x00, 0x00, 0x7e, 0xff, 0xff, 0xff,
  0x14, 0x00, 0x00, 0x00, 0x00, 0x00, 0x00, 0x15, 0x10, 0x00, 0x00, 0x00,
  0x14, 0x00, 0x00, 0x00, 0x04, 0x00, 0x00, 0x00, 0x54, 0xee, 0xff, 0xff,
  0x01, 0x00, 0x00, 0x00, 0x16, 0x00, 0x00, 0x00, 0x02, 0x00, 0x00, 0x00,
  0x00, 0x00, 0x00, 0x00, 0x15, 0x00, 0x00, 0x00, 0xae, 0xff, 0xff, 0xff,
  0x14, 0x00, 0x00, 0x00, 0x00, 0x00, 0x00, 0x15, 0x10, 0x00, 0x00, 0x00,
  0x14, 0x00, 0x00, 0x00, 0x04, 0x00, 0x00, 0x00, 0x84, 0xee, 0xff, 0xff,
  0x01, 0x00, 0x00, 0x00, 0x15, 0x00, 0x00, 0x00, 0x02, 0x00, 0x00, 0x00,
  0x14, 0x00, 0x00, 0x00, 0x05, 0x00, 0x00, 0x00, 0x6e, 0xff, 0xff, 0xff,
  0x0c, 0x00, 0x00, 0x00, 0x10, 0x00, 0x00, 0x00, 0x03, 0x00, 0x00, 0x00,
  0x01, 0x00, 0x00, 0x00, 0x14, 0x00, 0x00, 0x00, 0x01, 0x00, 0x00, 0x00,
  0x13, 0x00, 0x00, 0x00, 0x00, 0x00, 0x0e, 0x00, 0x18, 0x00, 0x14, 0x00,
  0x10, 0x00, 0x0c, 0x00, 0x0b, 0x00, 0x04, 0x00, 0x0e, 0x00, 0x00, 0x00,
  0x14, 0x00, 0x00, 0x00, 0x00, 0x00, 0x00, 0x0b, 0x10, 0x00, 0x00, 0x00,
  0x14, 0x00, 0x00, 0x00, 0x02, 0x00, 0x00, 0x00, 0xe4, 0xee, 0xff, 0xff,
  0x01, 0x00, 0x00, 0x00, 0x13, 0x00, 0x00, 0x00, 0x02, 0x00, 0x00, 0x00,
  0x12, 0x00, 0x00, 0x00, 0x0d, 0x00, 0x00, 0x00, 0x9e, 0xff, 0xff, 0xff,
  0x10, 0x00, 0x00, 0x00, 0x00, 0x00, 0x00, 0x1b, 0x10, 0x00, 0x00, 0x00,
  0x14, 0x00, 0x00, 0x00, 0x8e, 0xff, 0xff, 0xff, 0x00, 0x00, 0x00, 0x01,
  0x01, 0x00, 0x00, 0x00, 0x12, 0x00, 0x00, 0x00, 0x02, 0x00, 0x00, 0x00,
  0x11, 0x00, 0x00, 0x00, 0x0e, 0x00, 0x00, 0x00, 0x00, 0x00, 0x0a, 0x00,
  0x10, 0x00, 0x0c, 0x00, 0x08, 0x00, 0x04, 0x00, 0x0a, 0x00, 0x00, 0x00,
  0x0c, 0x00, 0x00, 0x00, 0x10, 0x00, 0x00, 0x00, 0x01, 0x00, 0x00, 0x00,
  0x01, 0x00, 0x00, 0x00, 0x11, 0x00, 0x00, 0x00, 0x02, 0x00, 0x00, 0x00,
  0x00, 0x00, 0x00, 0x00, 0x10, 0x00, 0x00, 0x00, 0x00, 0x00, 0x0e, 0x00,
  0x16, 0x00, 0x00, 0x00, 0x10, 0x00, 0x0c, 0x00, 0x0b, 0x00, 0x04, 0x00,
  0x0e, 0x00, 0x00, 0x00, 0x18, 0x00, 0x00, 0x00, 0x00, 0x00, 0x00, 0x1b,
  0x18, 0x00, 0x00, 0x00, 0x1c, 0x00, 0x00, 0x00, 0x00, 0x00, 0x06, 0x00,
  0x08, 0x00, 0x07, 0x00, 0x06, 0x00, 0x00, 0x00, 0x00, 0x00, 0x00, 0x01,
  0x01, 0x00, 0x00, 0x00, 0x10, 0x00, 0x00, 0x00, 0x02, 0x00, 0x00, 0x00,
  0x00, 0x00, 0x00, 0x00, 0x0e, 0x00, 0x00, 0x00, 0x01, 0x00, 0x00, 0x00,
  0x24, 0x00, 0x00, 0x00, 0x01, 0x00, 0x00, 0x00, 0x00, 0x00, 0x00, 0x00,
  0x25, 0x00, 0x00, 0x00, 0x2c, 0x0f, 0x00, 0x00, 0xbc, 0x0e, 0x00, 0x00,
  0x4c, 0x0e, 0x00, 0x00, 0xf8, 0x0d, 0x00, 0x00, 0xa4, 0x0d, 0x00, 0x00,
  0x48, 0x0d, 0x00, 0x00, 0xe8, 0x0c, 0x00, 0x00, 0x94, 0x0c, 0x00, 0x00,
  0x3c, 0x0c, 0x00, 0x00, 0xd4, 0x0b, 0x00, 0x00, 0x84, 0x0b, 0x00, 0x00,
  0x34, 0x0b, 0x00, 0x00, 0xe8, 0x0a, 0x00, 0x00, 0x90, 0x0a, 0x00, 0x00,
  0x20, 0x0a, 0x00, 0x00, 0xd8, 0x09, 0x00, 0x00, 0x64, 0x09, 0x00, 0x00,
  0xe0, 0x08, 0x00, 0x00, 0x68, 0x08, 0x00, 0x00, 0xf0, 0x07, 0x00, 0x00,
  0x78, 0x07, 0x00, 0x00, 0x00, 0x07, 0x00, 0x00, 0x88, 0x06, 0x00, 0x00,
  0x10, 0x06, 0x00, 0x00, 0x98, 0x05, 0x00, 0x00, 0x20, 0x05, 0x00, 0x00,
  0xd4, 0x04, 0x00, 0x00, 0x84, 0x04, 0x00, 0x00, 0x30, 0x04, 0x00, 0x00,
  0xc4, 0x03, 0x00, 0x00, 0xe4, 0x02, 0x00, 0x00, 0x70, 0x02, 0x00, 0x00,
  0xa4, 0x01, 0x00, 0x00, 0x30, 0x01, 0x00, 0x00, 0xd4, 0x00, 0x00, 0x00,
  0x60, 0x00, 0x00, 0x00, 0x04, 0x00, 0x00, 0x00, 0x7e, 0xf1, 0xff, 0xff,
  0x00, 0x00, 0x00, 0x01, 0x14, 0x00, 0x00, 0x00, 0x1c, 0x00, 0x00, 0x00,
  0x1c, 0x00, 0x00, 0x00, 0x25, 0x00, 0x00, 0x00, 0x34, 0x00, 0x00, 0x00,
  0x02, 0x00, 0x00, 0x00, 0xff, 0xff, 0xff, 0xff, 0x01, 0x00, 0x00, 0x00,
  0x74, 0xf0, 0xff, 0xff, 0x19, 0x00, 0x00, 0x00, 0x53, 0x74, 0x61, 0x74,
  0x65, 0x66, 0x75, 0x6c, 0x50, 0x61, 0x72, 0x74, 0x69, 0x74, 0x69, 0x6f,
  0x6e, 0x65, 0x64, 0x43, 0x61, 0x6c, 0x6c, 0x3a, 0x30, 0x00, 0x00, 0x00,
  0x02, 0x00, 0x00, 0x00, 0x01, 0x00, 0x00, 0x00, 0x01, 0x00, 0x00, 0x00,
  0xd6, 0xf1, 0xff, 0xff, 0x00, 0x00, 0x00, 0x01, 0x14, 0x00, 0x00, 0x00,
  0x1c, 0x00, 0x00, 0x00, 0x1c, 0x00, 0x00, 0x00, 0x24, 0x00, 0x00, 0x00,
  0x4c, 0x00, 0x00, 0x00, 0x02, 0x00, 0x00, 0x00, 0xff, 0xff, 0xff, 0xff,
  0x01, 0x00, 0x00, 0x00, 0xcc, 0xf0, 0xff, 0xff, 0x30, 0x00, 0x00, 0x00,
  0x73, 0x65, 0x71, 0x75, 0x65, 0x6e, 0x74, 0x69, 0x61, 0x6c, 0x2f, 0x64,
  0x65, 0x6e, 0x73, 0x65, 0x2f, 0x4d, 0x61, 0x74, 0x4d, 0x75, 0x6c, 0x3b,
  0x73, 0x65, 0x71, 0x75, 0x65, 0x6e, 0x74, 0x69, 0x61, 0x6c, 0x2f, 0x64,
  0x65, 0x6e, 0x73, 0x65, 0x2f, 0x42, 0x69, 0x61, 0x73, 0x41, 0x64, 0x64,
  0x00, 0x00, 0x00, 0x00, 0x02, 0x00, 0x00, 0x00, 0x01, 0x00, 0x00, 0x00,
  0x01, 0x00, 0x00, 0x00, 0x46, 0xf2, 0xff, 0xff, 0x00, 0x00, 0x00, 0x01,
  0x14, 0x00, 0x00, 0x00, 0x1c, 0x00, 0x00, 0x00, 0x1c, 0x00, 0x00, 0x00,
  0x23, 0x00, 0x00, 0x00, 0x34, 0x00, 0x00, 0x00, 0x02, 0x00, 0x00, 0x00,
  0xff, 0xff, 0xff, 0xff, 0xc3, 0x00, 0x00, 0x00, 0x3c, 0xf1, 0xff, 0xff,
  0x1a, 0x00, 0x00, 0x00, 0x73, 0x65, 0x71, 0x75, 0x65, 0x6e, 0x74, 0x69,
  0x61, 0x6c, 0x2f, 0x66, 0x6c, 0x61, 0x74, 0x74, 0x65, 0x6e, 0x2f, 0x52,
  0x65, 0x73, 0x68, 0x61, 0x70, 0x65, 0x00, 0x00, 0x02, 0x00, 0x00, 0x00,
  0x01, 0x00, 0x00, 0x00, 0xc3, 0x00, 0x00, 0x00, 0x9e, 0xf2, 0xff, 0xff,
  0x00, 0x00, 0x00, 0x01, 0x14, 0x00, 0x00, 0x00, 0x24, 0x00, 0x00, 0x00,
  0x24, 0x00, 0x00, 0x00, 0x22, 0x00, 0x00, 0x00, 0x44, 0x00, 0x00, 0x00,
  0x04, 0x00, 0x00, 0x00, 0xff, 0xff, 0xff, 0xff, 0x05, 0x00, 0x00, 0x00,
  0x0d, 0x00, 0x00, 0x00, 0x03, 0x00, 0x00, 0x00, 0x9c, 0xf1, 0xff, 0xff,
  0x22, 0x00, 0x00, 0x00, 0x73, 0x65, 0x71, 0x75, 0x65, 0x6e, 0x74, 0x69,
  0x61, 0x6c, 0x2f, 0x6d, 0x61, 0x78, 0x5f, 0x70, 0x6f, 0x6f, 0x6c, 0x69,
  0x6e, 0x67, 0x32, 0x64, 0x5f, 0x31, 0x2f, 0x4d, 0x61, 0x78, 0x50, 0x6f,
  0x6f, 0x6c, 0x00, 0x00, 0x04, 0x00, 0x00, 0x00, 0x01, 0x00, 0x00, 0x00,
  0x05, 0x00, 0x00, 0x00, 0x0d, 0x00, 0x00, 0x00, 0x03, 0x00, 0x00, 0x00,
  0x0e, 0xf3, 0xff, 0xff, 0x00, 0x00, 0x00, 0x01, 0x14, 0x00, 0x00, 0x00,
  0x24, 0x00, 0x00, 0x00, 0x24, 0x00, 0x00, 0x00, 0x21, 0x00, 0x00, 0x00,
  0x9c, 0x00, 0x00, 0x00, 0x04, 0x00, 0x00, 0x00, 0xff, 0xff, 0xff, 0xff,
  0x0a, 0x00, 0x00, 0x00, 0x1b, 0x00, 0x00, 0x00, 0x03, 0x00, 0x00, 0x00,
  0x0c, 0xf2, 0xff, 0xff, 0x7a, 0x00, 0x00, 0x00, 0x73, 0x65, 0x71, 0x75,
  0x65, 0x6e, 0x74, 0x69, 0x61, 0x6c, 0x2f, 0x63, 0x6f, 0x6e, 0x76, 0x32,
  0x64, 0x5f, 0x31, 0x2f, 0x52, 0x65, 0x6c, 0x75, 0x3b, 0x73, 0x65, 0x71,
  0x75, 0x65, 0x6e, 0x74, 0x69, 0x61, 0x6c, 0x2f, 0x63, 0x6f, 0x6e, 0x76,
  0x32, 0x64, 0x5f, 0x31, 0x2f, 0x42, 0x69, 0x61, 0x73, 0x41, 0x64, 0x64,
  0x3b, 0x73, 0x65, 0x71, 0x75, 0x65, 0x6e, 0x74, 0x69, 0x61, 0x6c, 0x2f,
  0x63, 0x6f, 0x6e, 0x76, 0x32, 0x64, 0x5f, 0x31, 0x2f, 0x43, 0x6f, 0x6e,
  0x76, 0x32, 0x44, 0x3b, 0x73, 0x65, 0x71, 0x75, 0x65, 0x6e, 0x74, 0x69,
  0x61, 0x6c, 0x2f, 0x63, 0x6f, 0x6e, 0x76, 0x32, 0x64, 0x5f, 0x31, 0x2f,
  0x42, 0x69, 0x61, 0x73, 0x41, 0x64, 0x64, 0x2f, 0x52, 0x65, 0x61, 0x64,
  0x56, 0x61, 0x72, 0x69, 0x61, 0x62, 0x6c, 0x65, 0x4f, 0x70, 0x00, 0x00,
  0x04, 0x00, 0x00, 0x00, 0x01, 0x00, 0x00, 0x00, 0x0a, 0x00, 0x00, 0x00,
  0x1b, 0x00, 0x00, 0x00, 0x03, 0x00, 0x00, 0x00, 0xd6, 0xf3, 0xff, 0xff,
  0x00, 0x00, 0x00, 0x01, 0x14, 0x00, 0x00, 0x00, 0x24, 0x00, 0x00, 0x00,
  0x24, 0x00, 0x00, 0x00, 0x20, 0x00, 0x00, 0x00, 0x44, 0x00, 0x00, 0x00,
  0x04, 0x00, 0x00, 0x00, 0xff, 0xff, 0xff, 0xff, 0x0c, 0x00, 0x00, 0x00,
  0x1d, 0x00, 0x00, 0x00, 0x03, 0x00, 0x00, 0x00, 0xd4, 0xf2, 0xff, 0xff,
  0x20, 0x00, 0x00, 0x00, 0x73, 0x65, 0x71, 0x75, 0x65, 0x6e, 0x74, 0x69,
  0x61, 0x6c, 0x2f, 0x6d, 0x61, 0x78, 0x5f, 0x70, 0x6f, 0x6f, 0x6c, 0x69,
  0x6e, 0x67, 0x32, 0x64, 0x2f, 0x4d, 0x61, 0x78, 0x50, 0x6f, 0x6f, 0x6c,
  0x00, 0x00, 0x00, 0x00, 0x04, 0x00, 0x00, 0x00, 0x01, 0x00, 0x00, 0x00,
  0x0c, 0x00, 0x00, 0x00, 0x1d, 0x00, 0x00, 0x00, 0x03, 0x00, 0x00, 0x00,
  0x46, 0xf4, 0xff, 0xff, 0x00, 0x00, 0x00, 0x01, 0x14, 0x00, 0x00, 0x00,
  0x24, 0x00, 0x00, 0x00, 0x24, 0x00, 0x00, 0x00, 0x1f, 0x00, 0x00, 0x00,
  0xb0, 0x00, 0x00, 0x00, 0x04, 0x00, 0x00, 0x00, 0xff, 0xff, 0xff, 0xff,
  0x19, 0x00, 0x00, 0x00, 0x3a, 0x00, 0x00, 0x00, 0x03, 0x00, 0x00, 0x00,
  0x44, 0xf3, 0xff, 0xff, 0x8d, 0x00, 0x00, 0x00, 0x73, 0x65, 0x71, 0x75,
  0x65, 0x6e, 0x74, 0x69, 0x61, 0x6c, 0x2f, 0x63, 0x6f, 0x6e, 0x76, 0x32,
  0x64, 0x2f, 0x52, 0x65, 0x6c, 0x75, 0x3b, 0x73, 0x65, 0x71, 0x75, 0x65,
  0x6e, 0x74, 0x69, 0x61, 0x6c, 0x2f, 0x63, 0x6f, 0x6e, 0x76, 0x32, 0x64,
  0x2f, 0x42, 0x69, 0x61, 0x73, 0x41, 0x64, 0x64, 0x3b, 0x73, 0x65, 0x71,
  0x75, 0x65, 0x6e, 0x74, 0x69, 0x61, 0x6c, 0x2f, 0x63, 0x6f, 0x6e, 0x76,
  0x32, 0x64, 0x5f, 0x31, 0x2f, 0x43, 0x6f, 0x6e, 0x76, 0x32, 0x44, 0x3b,
  0x73, 0x65, 0x71, 0x75, 0x65, 0x6e, 0x74, 0x69, 0x61, 0x6c, 0x2f, 0x63,
  0x6f, 0x6e, 0x76, 0x32, 0x64, 0x2f, 0x43, 0x6f, 0x6e, 0x76, 0x32, 0x44,
  0x3b, 0x73, 0x65, 0x71, 0x75, 0x65, 0x6e, 0x74, 0x69, 0x61, 0x6c, 0x2f,
  0x63, 0x6f, 0x6e, 0x76, 0x32, 0x64, 0x2f, 0x42, 0x69, 0x61, 0x73, 0x41,
  0x64, 0x64, 0x2f, 0x52, 0x65, 0x61, 0x64, 0x56, 0x61, 0x72, 0x69, 0x61,
  0x62, 0x6c, 0x65, 0x4f, 0x70, 0x00, 0x00, 0x00, 0x04, 0x00, 0x00, 0x00,
  0x01, 0x00, 0x00, 0x00, 0x19, 0x00, 0x00, 0x00, 0x3a, 0x00, 0x00, 0x00,
  0x03, 0x00, 0x00, 0x00, 0x22, 0xf5, 0xff, 0xff, 0x00, 0x00, 0x00, 0x01,
  0x14, 0x00, 0x00, 0x00, 0x24, 0x00, 0x00, 0x00, 0x24, 0x00, 0x00, 0x00,
  0x1e, 0x00, 0x00, 0x00, 0x3c, 0x00, 0x00, 0x00, 0x04, 0x00, 0x00, 0x00,
  0xff, 0xff, 0xff, 0xff, 0x1b, 0x00, 0x00, 0x00, 0x3c, 0x00, 0x00, 0x00,
  0x01, 0x00, 0x00, 0x00, 0x20, 0xf4, 0xff, 0xff, 0x1a, 0x00, 0x00, 0x00,
  0x73, 0x65, 0x71, 0x75, 0x65, 0x6e, 0x74, 0x69, 0x61, 0x6c, 0x2f, 0x72,
  0x65, 0x73, 0x68, 0x61, 0x70, 0x65, 0x2f, 0x52, 0x65, 0x73, 0x68, 0x61,
  0x70, 0x65, 0x00, 0x00, 0x04, 0x00, 0x00, 0x00, 0x01, 0x00, 0x00, 0x00,
  0x1b, 0x00, 0x00, 0x00, 0x3c, 0x00, 0x00, 0x00, 0x01, 0x00, 0x00, 0x00,
  0x5a, 0xf8, 0xff, 0xff, 0x00, 0x00, 0x00, 0x01, 0x14, 0x00, 0x00, 0x00,
  0x14, 0x00, 0x00, 0x00, 0x1d, 0x00, 0x00, 0x00, 0x00, 0x00, 0x00, 0x02,
  0x30, 0x00, 0x00, 0x00, 0x74, 0xf4, 0xff, 0xff, 0x20, 0x00, 0x00, 0x00,
  0x73, 0x65, 0x71, 0x75, 0x65, 0x6e, 0x74, 0x69, 0x61, 0x6c, 0x2f, 0x72,
  0x65, 0x73, 0x68, 0x61, 0x70, 0x65, 0x2f, 0x52, 0x65, 0x73, 0x68, 0x61,
  0x70, 0x65, 0x2f, 0x73, 0x68, 0x61, 0x70, 0x65, 0x00, 0x00, 0x00, 0x00,
  0x01, 0x00, 0x00, 0x00, 0x04, 0x00, 0x00, 0x00, 0xaa, 0xf8, 0xff, 0xff,
  0x00, 0x00, 0x00, 0x01, 0x14, 0x00, 0x00, 0x00, 0x14, 0x00, 0x00, 0x00,
  0x1c, 0x00, 0x00, 0x00, 0x00, 0x00, 0x00, 0x02, 0x30, 0x00, 0x00, 0x00,
  0xc4, 0xf4, 0xff, 0xff, 0x20, 0x00, 0x00, 0x00, 0x73, 0x65, 0x71, 0x75,
  0x65, 0x6e, 0x74, 0x69, 0x61, 0x6c, 0x2f, 0x72, 0x65, 0x73, 0x68, 0x61,
  0x70, 0x65, 0x2f, 0x73, 0x74, 0x72, 0x69, 0x64, 0x65, 0x64, 0x5f, 0x73,
  0x6c, 0x69, 0x63, 0x65, 0x00, 0x00, 0x00, 0x00, 0x00, 0x00, 0x00, 0x00,
  0xf6, 0xf8, 0xff, 0xff, 0x00, 0x00, 0x00, 0x01, 0x14, 0x00, 0x00, 0x00,
  0x14, 0x00, 0x00, 0x00, 0x1b, 0x00, 0x00, 0x00, 0x00, 0x00, 0x00, 0x02,
  0x28, 0x00, 0x00, 0x00, 0x10, 0xf5, 0xff, 0xff, 0x18, 0x00, 0x00, 0x00,
  0x73, 0x65, 0x71, 0x75, 0x65, 0x6e, 0x74, 0x69, 0x61, 0x6c, 0x2f, 0x72,
  0x65, 0x73, 0x68, 0x61, 0x70, 0x65, 0x2f, 0x53, 0x68, 0x61, 0x70, 0x65,
  0x00, 0x00, 0x00, 0x00, 0x01, 0x00, 0x00, 0x00, 0x03, 0x00, 0x00, 0x00,
  0x6e, 0xf6, 0xff, 0xff, 0x00, 0x00, 0x00, 0x01, 0x14, 0x00, 0x00, 0x00,
  0x20, 0x00, 0x00, 0x00, 0x20, 0x00, 0x00, 0x00, 0x1a, 0x00, 0x00, 0x00,
  0x4c, 0x00, 0x00, 0x00, 0x03, 0x00, 0x00, 0x00, 0xff, 0xff, 0xff, 0xff,
  0x1b, 0x00, 0x00, 0x00, 0x3c, 0x00, 0x00, 0x00, 0x68, 0xf5, 0xff, 0xff,
  0x2e, 0x00, 0x00, 0x00, 0x73, 0x65, 0x71, 0x75, 0x65, 0x6e, 0x74, 0x69,
  0x61, 0x6c, 0x2f, 0x6c, 0x61, 0x79, 0x65, 0x72, 0x5f, 0x6e, 0x6f, 0x72,
  0x6d, 0x61, 0x6c, 0x69, 0x7a, 0x61, 0x74, 0x69, 0x6f, 0x6e, 0x2f, 0x62,
  0x61, 0x74, 0x63, 0x68, 0x6e, 0x6f, 0x72, 0x6d, 0x2f, 0x61, 0x64, 0x64,
  0x5f, 0x31, 0x00, 0x00, 0x03, 0x00, 0x00, 0x00, 0x01, 0x00, 0x00, 0x00,
  0x1b, 0x00, 0x00, 0x00, 0x3c, 0x00, 0x00, 0x00, 0xe2, 0xf6, 0xff, 0xff,
  0x00, 0x00, 0x00, 0x01, 0x14, 0x00, 0x00, 0x00, 0x20, 0x00, 0x00, 0x00,
  0x20, 0x00, 0x00, 0x00, 0x19, 0x00, 0x00, 0x00, 0x4c, 0x00, 0x00, 0x00,
  0x03, 0x00, 0x00, 0x00, 0xff, 0xff, 0xff, 0xff, 0x1b, 0x00, 0x00, 0x00,
  0x3c, 0x00, 0x00, 0x00, 0xdc, 0xf5, 0xff, 0xff, 0x2c, 0x00, 0x00, 0x00,
  0x73, 0x65, 0x71, 0x75, 0x65, 0x6e, 0x74, 0x69, 0x61, 0x6c, 0x2f, 0x6c,
  0x61, 0x79, 0x65, 0x72, 0x5f, 0x6e, 0x6f, 0x72, 0x6d, 0x61, 0x6c, 0x69,
  0x7a, 0x61, 0x74, 0x69, 0x6f, 0x6e, 0x2f, 0x62, 0x61, 0x74, 0x63, 0x68,
  0x6e, 0x6f, 0x72, 0x6d, 0x2f, 0x73, 0x75, 0x62, 0x00, 0x00, 0x00, 0x00,
  0x03, 0x00, 0x00, 0x00, 0x01, 0x00, 0x00, 0x00, 0x1b, 0x00, 0x00, 0x00,
  0x3c, 0x00, 0x00, 0x00, 0x56, 0xf7, 0xff, 0xff, 0x00, 0x00, 0x00, 0x01,
  0x14, 0x00, 0x00, 0x00, 0x20, 0x00, 0x00, 0x00, 0x20, 0x00, 0x00, 0x00,
  0x18, 0x00, 0x00, 0x00, 0x4c, 0x00, 0x00, 0x00, 0x03, 0x00, 0x00, 0x00,
  0xff, 0xff, 0xff, 0xff, 0x1b, 0x00, 0x00, 0x00, 0x3c, 0x00, 0x00, 0x00,
  0x50, 0xf6, 0xff, 0xff, 0x2e, 0x00, 0x00, 0x00, 0x73, 0x65, 0x71, 0x75,
  0x65, 0x6e, 0x74, 0x69, 0x61, 0x6c, 0x2f, 0x6c, 0x61, 0x79, 0x65, 0x72,
  0x5f, 0x6e, 0x6f, 0x72, 0x6d, 0x61, 0x6c, 0x69, 0x7a, 0x61, 0x74, 0x69,
  0x6f, 0x6e, 0x2f, 0x62, 0x61, 0x74, 0x63, 0x68, 0x6e, 0x6f, 0x72, 0x6d,
  0x2f, 0x6d, 0x75, 0x6c, 0x5f, 0x32, 0x00, 0x00, 0x03, 0x00, 0x00, 0x00,
  0x01, 0x00, 0x00, 0x00, 0x1b, 0x00, 0x00, 0x00, 0x3c, 0x00, 0x00, 0x00,
  0xca, 0xf7, 0xff, 0xff, 0x00, 0x00, 0x00, 0x01, 0x14, 0x00, 0x00, 0x00,
  0x20, 0x00, 0x00, 0x00, 0x20, 0x00, 0x00, 0x00, 0x17, 0x00, 0x00, 0x00,
  0x4c, 0x00, 0x00, 0x00, 0x03, 0x00, 0x00, 0x00, 0xff, 0xff, 0xff, 0xff,
  0x1b, 0x00, 0x00, 0x00, 0x3c, 0x00, 0x00, 0x00, 0xc4, 0xf6, 0xff, 0xff,
  0x2e, 0x00, 0x00, 0x00, 0x73, 0x65, 0x71, 0x75, 0x65, 0x6e, 0x74, 0x69,
  0x61, 0x6c, 0x2f, 0x6c, 0x61, 0x79, 0x65, 0x72, 0x5f, 0x6e, 0x6f, 0x72,
  0x6d, 0x61, 0x6c, 0x69, 0x7a, 0x61, 0x74, 0x69, 0x6f, 0x6e, 0x2f, 0x62,
  0x61, 0x74, 0x63, 0x68, 0x6e, 0x6f, 0x72, 0x6d, 0x2f, 0x6d, 0x75, 0x6c,
  0x5f, 0x31, 0x00, 0x00, 0x03, 0x00, 0x00, 0x00, 0x01, 0x00, 0x00, 0x00,
  0x1b, 0x00, 0x00, 0x00, 0x3c, 0x00, 0x00, 0x00, 0x3e, 0xf8, 0xff, 0xff,
  0x00, 0x00, 0x00, 0x01, 0x14, 0x00, 0x00, 0x00, 0x20, 0x00, 0x00, 0x00,
  0x20, 0x00, 0x00, 0x00, 0x16, 0x00, 0x00, 0x00, 0x4c, 0x00, 0x00, 0x00,
  0x03, 0x00, 0x00, 0x00, 0xff, 0xff, 0xff, 0xff, 0x1b, 0x00, 0x00, 0x00,
  0x3c, 0x00, 0x00, 0x00, 0x38, 0xf7, 0xff, 0xff, 0x2c, 0x00, 0x00, 0x00,
  0x73, 0x65, 0x71, 0x75, 0x65, 0x6e, 0x74, 0x69, 0x61, 0x6c, 0x2f, 0x6c,
  0x61, 0x79, 0x65, 0x72, 0x5f, 0x6e, 0x6f, 0x72, 0x6d, 0x61, 0x6c, 0x69,
  0x7a, 0x61, 0x74, 0x69, 0x6f, 0x6e, 0x2f, 0x62, 0x61, 0x74, 0x63, 0x68,
  0x6e, 0x6f, 0x72, 0x6d, 0x2f, 0x6d, 0x75, 0x6c, 0x00, 0x00, 0x00, 0x00,
  0x03, 0x00, 0x00, 0x00, 0x01, 0x00, 0x00, 0x00, 0x1b, 0x00, 0x00, 0x00,
  0x3c, 0x00, 0x00, 0x00, 0xb2, 0xf8, 0xff, 0xff, 0x00, 0x00, 0x00, 0x01,
  0x14, 0x00, 0x00, 0x00, 0x20, 0x00, 0x00, 0x00, 0x20, 0x00, 0x00, 0x00,
  0x15, 0x00, 0x00, 0x00, 0x4c, 0x00, 0x00, 0x00, 0x03, 0x00, 0x00, 0x00,
  0xff, 0xff, 0xff, 0xff, 0x01, 0x00, 0x00, 0x00, 0x3c, 0x00, 0x00, 0x00,
  0xac, 0xf7, 0xff, 0xff, 0x2e, 0x00, 0x00, 0x00, 0x73, 0x65, 0x71, 0x75,
  0x65, 0x6e, 0x74, 0x69, 0x61, 0x6c, 0x2f, 0x6c, 0x61, 0x79, 0x65, 0x72,
  0x5f, 0x6e, 0x6f, 0x72, 0x6d, 0x61, 0x6c, 0x69, 0x7a, 0x61, 0x74, 0x69,
  0x6f, 0x6e, 0x2f, 0x62, 0x61, 0x74, 0x63, 0x68, 0x6e, 0x6f, 0x72, 0x6d,
  0x2f, 0x52, 0x73, 0x71, 0x72, 0x74, 0x00, 0x00, 0x03, 0x00, 0x00, 0x00,
  0x01, 0x00, 0x00, 0x00, 0x01, 0x00, 0x00, 0x00, 0x3c, 0x00, 0x00, 0x00,
  0x26, 0xf9, 0xff, 0xff, 0x00, 0x00, 0x00, 0x01, 0x14, 0x00, 0x00, 0x00,
  0x20, 0x00, 0x00, 0x00, 0x20, 0x00, 0x00, 0x00, 0x14, 0x00, 0x00, 0x00,
  0x4c, 0x00, 0x00, 0x00, 0x03, 0x00, 0x00, 0x00, 0xff, 0xff, 0xff, 0xff,
  0x01, 0x00, 0x00, 0x00, 0x3c, 0x00, 0x00, 0x00, 0x20, 0xf8, 0xff, 0xff,
  0x2c, 0x00, 0x00, 0x00, 0x73, 0x65, 0x71, 0x75, 0x65, 0x6e, 0x74, 0x69,
  0x61, 0x6c, 0x2f, 0x6c, 0x61, 0x79, 0x65, 0x72, 0x5f, 0x6e, 0x6f, 0x72,
  0x6d, 0x61, 0x6c, 0x69, 0x7a, 0x61, 0x74, 0x69, 0x6f, 0x6e, 0x2f, 0x62,
  0x61, 0x74, 0x63, 0x68, 0x6e, 0x6f, 0x72, 0x6d, 0x2f, 0x61, 0x64, 0x64,
  0x00, 0x00, 0x00, 0x00, 0x03, 0x00, 0x00, 0x00, 0x01, 0x00, 0x00, 0x00,
  0x01, 0x00, 0x00, 0x00, 0x3c, 0x00, 0x00, 0x00, 0x9a, 0xf9, 0xff, 0xff,
  0x00, 0x00, 0x00, 0x01, 0x14, 0x00, 0x00, 0x00, 0x20, 0x00, 0x00, 0x00,
  0x20, 0x00, 0x00, 0x00, 0x13, 0x00, 0x00, 0x00, 0x4c, 0x00, 0x00, 0x00,
  0x03, 0x00, 0x00, 0x00, 0xff, 0xff, 0xff, 0xff, 0x01, 0x00, 0x00, 0x00,
  0x3c, 0x00, 0x00, 0x00, 0x94, 0xf8, 0xff, 0xff, 0x2f, 0x00, 0x00, 0x00,
  0x73, 0x65, 0x71, 0x75, 0x65, 0x6e, 0x74, 0x69, 0x61, 0x6c, 0x2f, 0x6c,
  0x61, 0x79, 0x65, 0x72, 0x5f, 0x6e, 0x6f, 0x72, 0x6d, 0x61, 0x6c, 0x69,
  0x7a, 0x61, 0x74, 0x69, 0x6f, 0x6e, 0x2f, 0x6d, 0x6f, 0x6d, 0x65, 0x6e,
  0x74, 0x73, 0x2f, 0x76, 0x61, 0x72, 0x69, 0x61, 0x6e, 0x63, 0x65, 0x00,
  0x03, 0x00, 0x00, 0x00, 0x01, 0x00, 0x00, 0x00, 0x01, 0x00, 0x00, 0x00,
  0x3c, 0x00, 0x00, 0x00, 0x0e, 0xfa, 0xff, 0xff, 0x00, 0x00, 0x00, 0x01,
  0x14, 0x00, 0x00, 0x00, 0x20, 0x00, 0x00, 0x00, 0x20, 0x00, 0x00, 0x00,
  0x12, 0x00, 0x00, 0x00, 0x58, 0x00, 0x00, 0x00, 0x03, 0x00, 0x00, 0x00,
  0xff, 0xff, 0xff, 0xff, 0x1b, 0x00, 0x00, 0x00, 0x3c, 0x00, 0x00, 0x00,
  0x08, 0xf9, 0xff, 0xff, 0x38, 0x00, 0x00, 0x00, 0x73, 0x65, 0x71, 0x75,
  0x65, 0x6e, 0x74, 0x69, 0x61, 0x6c, 0x2f, 0x6c, 0x61, 0x79, 0x65, 0x72,
  0x5f, 0x6e, 0x6f, 0x72, 0x6d, 0x61, 0x6c, 0x69, 0x7a, 0x61, 0x74, 0x69,
  0x6f, 0x6e, 0x2f, 0x6d, 0x6f, 0x6d, 0x65, 0x6e, 0x74, 0x73, 0x2f, 0x53,
  0x71, 0x75, 0x61, 0x72, 0x65, 0x64, 0x44, 0x69, 0x66, 0x66, 0x65, 0x72,
  0x65, 0x6e, 0x63, 0x65, 0x00, 0x00, 0x00, 0x00, 0x03, 0x00, 0x00, 0x00,
  0x01, 0x00, 0x00, 0x00, 0x1b, 0x00, 0x00, 0x00, 0x3c, 0x00, 0x00, 0x00,
  0x8e, 0xfa, 0xff, 0xff, 0x00, 0x00, 0x00, 0x01, 0x14, 0x00, 0x00, 0x00,
  0x20, 0x00, 0x00, 0x00, 0x20, 0x00, 0x00, 0x00, 0x11, 0x00, 0x00, 0x00,
  0x48, 0x00, 0x00, 0x00, 0x03, 0x00, 0x00, 0x00, 0xff, 0xff, 0xff, 0xff,
  0x01, 0x00, 0x00, 0x00, 0x3c, 0x00, 0x00, 0x00, 0x88, 0xf9, 0xff, 0xff,
  0x2b, 0x00, 0x00, 0x00, 0x73, 0x65, 0x71, 0x75, 0x65, 0x6e, 0x74, 0x69,
  0x61, 0x6c, 0x2f, 0x6c, 0x61, 0x79, 0x65, 0x72, 0x5f, 0x6e, 0x6f, 0x72,
  0x6d, 0x61, 0x6c, 0x69, 0x7a, 0x61, 0x74, 0x69, 0x6f, 0x6e, 0x2f, 0x6d,
  0x6f, 0x6d, 0x65, 0x6e, 0x74, 0x73, 0x2f, 0x6d, 0x65, 0x61, 0x6e, 0x00,
  0x03, 0x00, 0x00, 0x00, 0x01, 0x00, 0x00, 0x00, 0x01, 0x00, 0x00, 0x00,
  0x3c, 0x00, 0x00, 0x00, 0x6a, 0xfb, 0xff, 0xff, 0x00, 0x00, 0x00, 0x01,
  0x10, 0x00, 0x00, 0x00, 0x10, 0x00, 0x00, 0x00, 0x10, 0x00, 0x00, 0x00,
  0x24, 0x00, 0x00, 0x00, 0xe4, 0xf9, 0xff, 0xff, 0x17, 0x00, 0x00, 0x00,
  0x73, 0x65, 0x71, 0x75, 0x65, 0x6e, 0x74, 0x69, 0x61, 0x6c, 0x2f, 0x64,
  0x65, 0x6e, 0x73, 0x65, 0x2f, 0x4d, 0x61, 0x74, 0x4d, 0x75, 0x6c, 0x00,
  0x02, 0x00, 0x00, 0x00, 0x01, 0x00, 0x00, 0x00, 0xc3, 0x00, 0x00, 0x00,
  0x12, 0xfe, 0xff, 0xff, 0x00, 0x00, 0x00, 0x01, 0x14, 0x00, 0x00, 0x00,
  0x14, 0x00, 0x00, 0x00, 0x0a, 0x00, 0x00, 0x00, 0x00, 0x00, 0x00, 0x02,
  0x4c, 0x00, 0x00, 0x00, 0x2c, 0xfa, 0xff, 0xff, 0x3d, 0x00, 0x00, 0x00,
  0x73, 0x65, 0x71, 0x75, 0x65, 0x6e, 0x74, 0x69, 0x61, 0x6c, 0x2f, 0x6c,
  0x61, 0x79, 0x65, 0x72, 0x5f, 0x6e, 0x6f, 0x72, 0x6d, 0x61, 0x6c, 0x69,
  0x7a, 0x61, 0x74, 0x69, 0x6f, 0x6e, 0x2f, 0x6d, 0x6f, 0x6d, 0x65, 0x6e,
  0x74, 0x73, 0x2f, 0x6d, 0x65, 0x61, 0x6e, 0x2f, 0x72, 0x65, 0x64, 0x75,
  0x63, 0x74, 0x69, 0x6f, 0x6e, 0x5f, 0x69, 0x6e, 0x64, 0x69, 0x63, 0x65,
  0x73, 0x00, 0x00, 0x00, 0x01, 0x00, 0x00, 0x00, 0x01, 0x00, 0x00, 0x00,
  0x1a, 0xfc, 0xff, 0xff, 0x00, 0x00, 0x00, 0x01, 0x10, 0x00, 0x00, 0x00,
  0x10, 0x00, 0x00, 0x00, 0x0e, 0x00, 0x00, 0x00, 0x3c, 0x00, 0x00, 0x00,
  0x94, 0xfa, 0xff, 0xff, 0x2e, 0x00, 0x00, 0x00, 0x73, 0x65, 0x71, 0x75,
  0x65, 0x6e, 0x74, 0x69, 0x61, 0x6c, 0x2f, 0x6c, 0x61, 0x79, 0x65, 0x72,
  0x5f, 0x6e, 0x6f, 0x72, 0x6d, 0x61, 0x6c, 0x69, 0x7a, 0x61, 0x74, 0x69,
  0x6f, 0x6e, 0x2f, 0x62, 0x61, 0x74, 0x63, 0x68, 0x6e, 0x6f, 0x72, 0x6d,
  0x2f, 0x61, 0x64, 0x64, 0x2f, 0x79, 0x00, 0x00, 0x00, 0x00, 0x00, 0x00,
  0xd2, 0xfe, 0xff, 0xff, 0x00, 0x00, 0x00, 0x01, 0x14, 0x00, 0x00, 0x00,
  0x14, 0x00, 0x00, 0x00, 0x0d, 0x00, 0x00, 0x00, 0x00, 0x00, 0x00, 0x02,
  0x28, 0x00, 0x00, 0x00, 0xec, 0xfa, 0xff, 0xff, 0x18, 0x00, 0x00, 0x00,
  0x73, 0x65, 0x71, 0x75, 0x65, 0x6e, 0x74, 0x69, 0x61, 0x6c, 0x2f, 0x66,
  0x6c, 0x61, 0x74, 0x74, 0x65, 0x6e, 0x2f, 0x43, 0x6f, 0x6e, 0x73, 0x74,
  0x00, 0x00, 0x00, 0x00, 0x01, 0x00, 0x00, 0x00, 0x02, 0x00, 0x00, 0x00,
  0x1a, 0xff, 0xff, 0xff, 0x00, 0x00, 0x00, 0x01, 0x14, 0x00, 0x00, 0x00,
  0x14, 0x00, 0x00, 0x00, 0x0c, 0x00, 0x00, 0x00, 0x00, 0x00, 0x00, 0x02,
  0x30, 0x00, 0x00, 0x00, 0x34, 0xfb, 0xff, 0xff, 0x22, 0x00, 0x00, 0x00,
  0x73, 0x65, 0x71, 0x75, 0x65, 0x6e, 0x74, 0x69, 0x61, 0x6c, 0x2f, 0x72,
  0x65, 0x73, 0x68, 0x61, 0x70, 0x65, 0x2f, 0x52, 0x65, 0x73, 0x68, 0x61,
  0x70, 0x65, 0x2f, 0x73, 0x68, 0x61, 0x70, 0x65, 0x2f, 0x31, 0x00, 0x00,
  0x00, 0x00, 0x00, 0x00, 0x66, 0xff, 0xff, 0xff, 0x00, 0x00, 0x00, 0x01,
  0x14, 0x00, 0x00, 0x00, 0x14, 0x00, 0x00, 0x00, 0x0b, 0x00, 0x00, 0x00,
  0x00, 0x00, 0x00, 0x02, 0x30, 0x00, 0x00, 0x00, 0x80, 0xfb, 0xff, 0xff,
  0x22, 0x00, 0x00, 0x00, 0x73, 0x65, 0x71, 0x75, 0x65, 0x6e, 0x74, 0x69,
  0x61, 0x6c, 0x2f, 0x72, 0x65, 0x73, 0x68, 0x61, 0x70, 0x65, 0x2f, 0x52,
  0x65, 0x73, 0x68, 0x61, 0x70, 0x65, 0x2f, 0x73, 0x68, 0x61, 0x70, 0x65,
  0x2f, 0x32, 0x00, 0x00, 0x00, 0x00, 0x00, 0x00, 0xb2, 0xff, 0xff, 0xff,
  0x00, 0x00, 0x00, 0x01, 0x14, 0x00, 0x00, 0x00, 0x14, 0x00, 0x00, 0x00,
  0x0a, 0x00, 0x00, 0x00, 0x00, 0x00, 0x00, 0x02, 0x30, 0x00, 0x00, 0x00,
  0xcc, 0xfb, 0xff, 0xff, 0x22, 0x00, 0x00, 0x00, 0x73, 0x65, 0x71, 0x75,
  0x65, 0x6e, 0x74, 0x69, 0x61, 0x6c, 0x2f, 0x72, 0x65, 0x73, 0x68, 0x61,
  0x70, 0x65, 0x2f, 0x52, 0x65, 0x73, 0x68, 0x61, 0x70, 0x65, 0x2f, 0x73,
  0x68, 0x61, 0x70, 0x65, 0x2f, 0x33, 0x00, 0x00, 0x00, 0x00, 0x00, 0x00,
  0x00, 0x00, 0x16, 0x00, 0x1c, 0x00, 0x18, 0x00, 0x17, 0x00, 0x10, 0x00,
  0x0c, 0x00, 0x08, 0x00, 0x00, 0x00, 0x00, 0x00, 0x00, 0x00, 0x07, 0x00,
  0x16, 0x00, 0x00, 0x00, 0x00, 0x00, 0x00, 0x01, 0x14, 0x00, 0x00, 0x00,
  0x14, 0x00, 0x00, 0x00, 0x09, 0x00, 0x00, 0x00, 0x00, 0x00, 0x00, 0x02,
  0x34, 0x00, 0x00, 0x00, 0x30, 0xfc, 0xff, 0xff, 0x26, 0x00, 0x00, 0x00,
  0x73, 0x65, 0x71, 0x75, 0x65, 0x6e, 0x74, 0x69, 0x61, 0x6c, 0x2f, 0x72,
  0x65, 0x73, 0x68, 0x61, 0x70, 0x65, 0x2f, 0x73, 0x74, 0x72, 0x69, 0x64,
  0x65, 0x64, 0x5f, 0x73, 0x6c, 0x69, 0x63, 0x65, 0x2f, 0x73, 0x74, 0x61,
  0x63, 0x6b, 0x00, 0x00, 0x01, 0x00, 0x00, 0x00, 0x01, 0x00, 0x00, 0x00,
  0x06, 0xfe, 0xff, 0xff, 0x00, 0x00, 0x00, 0x01, 0x10, 0x00, 0x00, 0x00,
  0x10, 0x00, 0x00, 0x00, 0x08, 0x00, 0x00, 0x00, 0x34, 0x00, 0x00, 0x00,
  0x80, 0xfc, 0xff, 0xff, 0x27, 0x00, 0x00, 0x00, 0x73, 0x65, 0x71, 0x75,
  0x65, 0x6e, 0x74, 0x69, 0x61, 0x6c, 0x2f, 0x64, 0x65, 0x6e, 0x73, 0x65,
  0x2f, 0x42, 0x69, 0x61, 0x73, 0x41, 0x64, 0x64, 0x2f, 0x52, 0x65, 0x61,
  0x64, 0x56, 0x61, 0x72, 0x69, 0x61, 0x62, 0x6c, 0x65, 0x4f, 0x70, 0x00,
  0x01, 0x00, 0x00, 0x00, 0x01, 0x00, 0x00, 0x00, 0x56, 0xfe, 0xff, 0xff,
  0x00, 0x00, 0x00, 0x01, 0x10, 0x00, 0x00, 0x00, 0x10, 0x00, 0x00, 0x00,
  0x07, 0x00, 0x00, 0x00, 0x38, 0x00, 0x00, 0x00, 0xd0, 0xfc, 0xff, 0xff,
  0x28, 0x00, 0x00, 0x00, 0x73, 0x65, 0x71, 0x75, 0x65, 0x6e, 0x74, 0x69,
  0x61, 0x6c, 0x2f, 0x6c, 0x61, 0x79, 0x65, 0x72, 0x5f, 0x6e, 0x6f, 0x72,
  0x6d, 0x61, 0x6c, 0x69, 0x7a, 0x61, 0x74, 0x69, 0x6f, 0x6e, 0x2f, 0x52,
  0x65, 0x73, 0x68, 0x61, 0x70, 0x65, 0x5f, 0x31, 0x00, 0x00, 0x00, 0x00,
  0x03, 0x00, 0x00, 0x00, 0x01, 0x00, 0x00, 0x00, 0x1b, 0x00, 0x00, 0x00,
  0x01, 0x00, 0x00, 0x00, 0xb2, 0xfe, 0xff, 0xff, 0x00, 0x00, 0x00, 0x01,
  0x10, 0x00, 0x00, 0x00, 0x10, 0x00, 0x00, 0x00, 0x06, 0x00, 0x00, 0x00,
  0x34, 0x00, 0x00, 0x00, 0x2c, 0xfd, 0xff, 0xff, 0x26, 0x00, 0x00, 0x00,
  0x73, 0x65, 0x71, 0x75, 0x65, 0x6e, 0x74, 0x69, 0x61, 0x6c, 0x2f, 0x6c,
  0x61, 0x79, 0x65, 0x72, 0x5f, 0x6e, 0x6f, 0x72, 0x6d, 0x61, 0x6c, 0x69,
  0x7a, 0x61, 0x74, 0x69, 0x6f, 0x6e, 0x2f, 0x52, 0x65, 0x73, 0x68, 0x61,
  0x70, 0x65, 0x00, 0x00, 0x03, 0x00, 0x00, 0x00, 0x01, 0x00, 0x00, 0x00,
  0x1b, 0x00, 0x00, 0x00, 0x01, 0x00, 0x00, 0x00, 0x0a, 0xff, 0xff, 0xff,
  0x00, 0x00, 0x00, 0x01, 0x10, 0x00, 0x00, 0x00, 0x10, 0x00, 0x00, 0x00,
  0x05, 0x00, 0x00, 0x00, 0x28, 0x00, 0x00, 0x00, 0x84, 0xfd, 0xff, 0xff,
  0x1a, 0x00, 0x00, 0x00, 0x73, 0x65, 0x71, 0x75, 0x65, 0x6e, 0x74, 0x69,
  0x61, 0x6c, 0x2f, 0x63, 0x6f, 0x6e, 0x76, 0x32, 0x64, 0x5f, 0x31, 0x2f,
  0x43, 0x6f, 0x6e, 0x76, 0x32, 0x44, 0x00, 0x00, 0x04, 0x00, 0x00, 0x00,
  0x03, 0x00, 0x00, 0x00, 0x03, 0x00, 0x00, 0x00, 0x03, 0x00, 0x00, 0x00,
  0x03, 0x00, 0x00, 0x00, 0x5a, 0xff, 0xff, 0xff, 0x00, 0x00, 0x00, 0x01,
  0x10, 0x00, 0x00, 0x00, 0x10, 0x00, 0x00, 0x00, 0x04, 0x00, 0x00, 0x00,
  0x28, 0x00, 0x00, 0x00, 0xd4, 0xfd, 0xff, 0xff, 0x18, 0x00, 0x00, 0x00,
  0x73, 0x65, 0x71, 0x75, 0x65, 0x6e, 0x74, 0x69, 0x61, 0x6c, 0x2f, 0x63,
  0x6f, 0x6e, 0x76, 0x32, 0x64, 0x2f, 0x43, 0x6f, 0x6e, 0x76, 0x32, 0x44,
  0x00, 0x00, 0x00, 0x00, 0x04, 0x00, 0x00, 0x00, 0x03, 0x00, 0x00, 0x00,
  0x03, 0x00, 0x00, 0x00, 0x03, 0x00, 0x00, 0x00, 0x01, 0x00, 0x00, 0x00,
  0xaa, 0xff, 0xff, 0xff, 0x00, 0x00, 0x00, 0x01, 0x10, 0x00, 0x00, 0x00,
  0x10, 0x00, 0x00, 0x00, 0x03, 0x00, 0x00, 0x00, 0x38, 0x00, 0x00, 0x00,
  0x24, 0xfe, 0xff, 0xff, 0x2a, 0x00, 0x00, 0x00, 0x73, 0x65, 0x71, 0x75,
  0x65, 0x6e, 0x74, 0x69, 0x61, 0x6c, 0x2f, 0x63, 0x6f, 0x6e, 0x76, 0x32,
  0x64, 0x5f, 0x31, 0x2f, 0x42, 0x69, 0x61, 0x73, 0x41, 0x64, 0x64, 0x2f,
  0x52, 0x65, 0x61, 0x64, 0x56, 0x61, 0x72, 0x69, 0x61, 0x62, 0x6c, 0x65,
  0x4f, 0x70, 0x00, 0x00, 0x01, 0x00, 0x00, 0x00, 0x03, 0x00, 0x00, 0x00,
  0x00, 0x00, 0x16, 0x00, 0x18, 0x00, 0x14, 0x00, 0x00, 0x00, 0x10, 0x00,
  0x0c, 0x00, 0x08, 0x00, 0x00, 0x00, 0x00, 0x00, 0x00, 0x00, 0x07, 0x00,
  0x16, 0x00, 0x00, 0x00, 0x00, 0x00, 0x00, 0x01, 0x10, 0x00, 0x00, 0x00,
  0x10, 0x00, 0x00, 0x00, 0x02, 0x00, 0x00, 0x00, 0x38, 0x00, 0x00, 0x00,
  0x90, 0xfe, 0xff, 0xff, 0x28, 0x00, 0x00, 0x00, 0x73, 0x65, 0x71, 0x75,
  0x65, 0x6e, 0x74, 0x69, 0x61, 0x6c, 0x2f, 0x63, 0x6f, 0x6e, 0x76, 0x32,
  0x64, 0x2f, 0x42, 0x69, 0x61, 0x73, 0x41, 0x64, 0x64, 0x2f, 0x52, 0x65,
  0x61, 0x64, 0x56, 0x61, 0x72, 0x69, 0x61, 0x62, 0x6c, 0x65, 0x4f, 0x70,
  0x00, 0x00, 0x00, 0x00, 0x01, 0x00, 0x00, 0x00, 0x03, 0x00, 0x00, 0x00,
  0x00, 0x00, 0x16, 0x00, 0x1c, 0x00, 0x18, 0x00, 0x00, 0x00, 0x14, 0x00,
  0x10, 0x00, 0x0c, 0x00, 0x00, 0x00, 0x00, 0x00, 0x08, 0x00, 0x07, 0x00,
  0x16, 0x00, 0x00, 0x00, 0x00, 0x00, 0x00, 0x01, 0x14, 0x00, 0x00, 0x00,
  0x20, 0x00, 0x00, 0x00, 0x20, 0x00, 0x00, 0x00, 0x01, 0x00, 0x00, 0x00,
  0x34, 0x00, 0x00, 0x00, 0x03, 0x00, 0x00, 0x00, 0xff, 0xff, 0xff, 0xff,
  0x1b, 0x00, 0x00, 0x00, 0x3c, 0x00, 0x00, 0x00, 0x10, 0xff, 0xff, 0xff,
  0x15, 0x00, 0x00, 0x00, 0x73, 0x65, 0x72, 0x76, 0x69, 0x6e, 0x67, 0x5f,
  0x64, 0x65, 0x66, 0x61, 0x75, 0x6c, 0x74, 0x5f, 0x6d, 0x65, 0x6c, 0x3a,
  0x30, 0x00, 0x00, 0x00, 0x03, 0x00, 0x00, 0x00, 0x01, 0x00, 0x00, 0x00,
  0x1b, 0x00, 0x00, 0x00, 0x3c, 0x00, 0x00, 0x00, 0x0e, 0x00, 0x00, 0x00,
  0xdc, 0x00, 0x00, 0x00, 0xc0, 0x00, 0x00, 0x00, 0xb8, 0x00, 0x00, 0x00,
  0xa4, 0x00, 0x00, 0x00, 0x94, 0x00, 0x00, 0x00, 0x84, 0x00, 0x00, 0x00,
  0x74, 0x00, 0x00, 0x00, 0x64, 0x00, 0x00, 0x00, 0x54, 0x00, 0x00, 0x00,
  0x44, 0x00, 0x00, 0x00, 0x34, 0x00, 0x00, 0x00, 0x24, 0x00, 0x00, 0x00,
  0x14, 0x00, 0x00, 0x00, 0x04, 0x00, 0x00, 0x00, 0x68, 0xff, 0xff, 0xff,
  0x0e, 0x00, 0x00, 0x00, 0x00, 0x00, 0x00, 0x0e, 0x74, 0xff, 0xff, 0xff,
  0x09, 0x00, 0x00, 0x00, 0x00, 0x00, 0x00, 0x09, 0x80, 0xff, 0xff, 0xff,
  0x11, 0x00, 0x00, 0x00, 0x00, 0x00, 0x00, 0x11, 0x8c, 0xff, 0xff, 0xff,
  0x03, 0x00, 0x00, 0x00, 0x00, 0x00, 0x00, 0x03, 0x98, 0xff, 0xff, 0xff,
  0x16, 0x00, 0x00, 0x00, 0x00, 0x00, 0x00, 0x16, 0xa4, 0xff, 0xff, 0xff,
  0x53, 0x00, 0x00, 0x00, 0x00, 0x00, 0x00, 0x53, 0xb0, 0xff, 0xff, 0xff,
  0x2d, 0x00, 0x00, 0x00, 0x00, 0x00, 0x00, 0x2d, 0xbc, 0xff, 0xff, 0xff,
  0x4d, 0x00, 0x00, 0x00, 0x00, 0x00, 0x00, 0x4d, 0xc8, 0xff, 0xff, 0xff,
  0x29, 0x00, 0x00, 0x00, 0x00, 0x00, 0x00, 0x29, 0xd4, 0xff, 0xff, 0xff,
  0x12, 0x00, 0x00, 0x00, 0x00, 0x00, 0x00, 0x12, 0xe0, 0xff, 0xff, 0xff,
  0x4c, 0x00, 0x00, 0x00, 0x00, 0x00, 0x00, 0x4c, 0x04, 0x00, 0x04, 0x00,
  0x04, 0x00, 0x00, 0x00, 0xf4, 0xff, 0xff, 0xff, 0x63, 0x00, 0x00, 0x00,
  0x00, 0x00, 0x00, 0x63, 0x0c, 0x00, 0x0c, 0x00, 0x0b, 0x00, 0x00, 0x00,
  0x00, 0x00, 0x04, 0x00, 0x0c, 0x00, 0x00, 0x00, 0x28, 0x00, 0x00, 0x00,
  0x00, 0x00, 0x00, 0x28
};
unsigned int model_0331_1411_model_CNN_tflite_len = 7840;
